{
  "version": "1.0",
  "truncation": {
    "direction": "Right",
    "max_length": 4096,
    "strategy": "LongestFirst",
    "stride": 0
  },
  "padding": null,
  "added_tokens": [
    {
      "id": 0,
      "content": "<|pad|>",
      "single_word": false,
      "lstrip": false,
      "rstrip": false,
      "normalized": false,
      "special": true
    },
    {
      "id": 1,
      "content": "<|begin_of_text|>",
      "single_word": false,
      "lstrip": false,
      "rstrip": false,
      "normalized": false,
      "special": true
    },
    {
      "id": 2,
      "content": "<|end_of_text|>",
      "single_word": false,
      "lstrip": false,
      "rstrip": false,
      "normalized": false,
      "special": true
    },
    {
      "id": 5,
      "content": "<|eot_id|>",
      "single_word": false,
      "lstrip": false,
      "rstrip": false,
      "normalized": false,
      "special": true
    },
    {
      "id": 6,
      "content": "<|start_header_id|>",
      "single_word": false,
      "lstrip": false,
      "rstrip": false,
      "normalized": false,
      "special": true
    },
    {
      "id": 7,
      "content": "<|end_header_id|>",
      "single_word": false,
      "lstrip": false,
      "rstrip": false,
      "normalized": false,
      "special": true
    }
  ],
  "normalizer": {
    "type": "Sequence",
    "normalizers": [
      {
        "type": "Prepend",
        "prepend": "▁"
      },
      {
        "type": "Replace",
        "pattern": {
          "String": " "
        },
        "content": "▁"
      }
    ]
  },
  "pre_tokenizer": null,
  "post_processor": {
    "type": "TemplateProcessing",
    "single": [
      {
        "Sequence": {
          "id": "A",
          "type_id": 0
        }
      }
    ],
    "pair": [
      {
        "Sequence": {
          "id": "A",
          "type_id": 0
        }
      },
      {
        "Sequence": {
          "id": "B",
          "type_id": 1
        }
      }
    ],
    "special_tokens": {}
  },
  "decoder": {
    "type": "Sequence",
    "decoders": [
      {
        "type": "Replace",
        "pattern": {
          "String": "▁"
        },
        "content": " "
      },
      {
        "type": "ByteFallback"
      },
      {
        "type": "Fuse"
      },
      {
        "type": "Strip",
        "content": " ",
        "start": 1,
        "stop": 0
      }
    ]
  },
  "model": {
    "type": "BPE",
    "dropout": null,
    "unk_token": null,
    "continuing_subword_prefix": null,
    "end_of_word_suffix": null,
    "fuse_unk": true,
    "byte_fallback": true,
    "ignore_merges": false,
    "vocab": {
      "<|pad|>": 0,
      "<|begin_of_text|>": 1,
      "<|end_of_text|>": 2,
      "\t": 3,
      "▁▁": 4,
      "<|eot_id|>": 5,
      "<|start_header_id|>": 6,
      "<|end_header_id|>": 7,
      "\n": 8,
      "<h2>": 9,
      "<h2/>": 10,
      "</h2>": 11,
      "<br>": 12,
      "<br/>": 13,
      "</br>": 14,
      "<strong>": 15,
      "<strong/>": 16,
      "</strong>": 17,
      "<h1>": 18,
      "<h1/>": 19,
      "</h1>": 20,
      "<p>": 21,
      "<p/>": 22,
      "</p>": 23,
      "<h5>": 24,
      "<h5/>": 25,
      "</h5>": 26,
      "<h3>": 27,
      "<h3/>": 28,
      "</h3>": 29,
      "<table>": 30,
      "<table/>": 31,
      "</table>": 32,
      "<li>": 33,
      "<li/>": 34,
      "</li>": 35,
      "<tr>": 36,
      "<tr/>": 37,
      "</tr>": 38,
      "<h4>": 39,
      "<h4/>": 40,
      "</h4>": 41,
      "<tbody>": 42,
      "<tbody/>": 43,
      "</tbody>": 44,
      "<img>": 45,
      "<img/>": 46,
      "</img>": 47,
      "<b>": 48,
      "<b/>": 49,
      "</b>": 50,
      "<td>": 51,
      "<td/>": 52,
      "</td>": 53,
      "<0x00>": 54,
      "<0x01>": 55,
      "<0x02>": 56,
      "<0x03>": 57,
      "<0x04>": 58,
      "<0x05>": 59,
      "<0x06>": 60,
      "<0x07>": 61,
      "<0x08>": 62,
      "<0x09>": 63,
      "<0x0A>": 64,
      "<0x0B>": 65,
      "<0x0C>": 66,
      "<0x0D>": 67,
      "<0x0E>": 68,
      "<0x0F>": 69,
      "<0x10>": 70,
      "<0x11>": 71,
      "<0x12>": 72,
      "<0x13>": 73,
      "<0x14>": 74,
      "<0x15>": 75,
      "<0x16>": 76,
      "<0x17>": 77,
      "<0x18>": 78,
      "<0x19>": 79,
      "<0x1A>": 80,
      "<0x1B>": 81,
      "<0x1C>": 82,
      "<0x1D>": 83,
      "<0x1E>": 84,
      "<0x1F>": 85,
      "<0x20>": 86,
      "<0x21>": 87,
      "<0x22>": 88,
      "<0x23>": 89,
      "<0x24>": 90,
      "<0x25>": 91,
      "<0x26>": 92,
      "<0x27>": 93,
      "<0x28>": 94,
      "<0x29>": 95,
      "<0x2A>": 96,
      "<0x2B>": 97,
      "<0x2C>": 98,
      "<0x2D>": 99,
      "<0x2E>": 100,
      "<0x2F>": 101,
      "<0x30>": 102,
      "<0x31>": 103,
      "<0x32>": 104,
      "<0x33>": 105,
      "<0x34>": 106,
      "<0x35>": 107,
      "<0x36>": 108,
      "<0x37>": 109,
      "<0x38>": 110,
      "<0x39>": 111,
      "<0x3A>": 112,
      "<0x3B>": 113,
      "<0x3C>": 114,
      "<0x3D>": 115,
      "<0x3E>": 116,
      "<0x3F>": 117,
      "<0x40>": 118,
      "<0x41>": 119,
      "<0x42>": 120,
      "<0x43>": 121,
      "<0x44>": 122,
      "<0x45>": 123,
      "<0x46>": 124,
      "<0x47>": 125,
      "<0x48>": 126,
      "<0x49>": 127,
      "<0x4A>": 128,
      "<0x4B>": 129,
      "<0x4C>": 130,
      "<0x4D>": 131,
      "<0x4E>": 132,
      "<0x4F>": 133,
      "<0x50>": 134,
      "<0x51>": 135,
      "<0x52>": 136,
      "<0x53>": 137,
      "<0x54>": 138,
      "<0x55>": 139,
      "<0x56>": 140,
      "<0x57>": 141,
      "<0x58>": 142,
      "<0x59>": 143,
      "<0x5A>": 144,
      "<0x5B>": 145,
      "<0x5C>": 146,
      "<0x5D>": 147,
      "<0x5E>": 148,
      "<0x5F>": 149,
      "<0x60>": 150,
      "<0x61>": 151,
      "<0x62>": 152,
      "<0x63>": 153,
      "<0x64>": 154,
      "<0x65>": 155,
      "<0x66>": 156,
      "<0x67>": 157,
      "<0x68>": 158,
      "<0x69>": 159,
      "<0x6A>": 160,
      "<0x6B>": 161,
      "<0x6C>": 162,
      "<0x6D>": 163,
      "<0x6E>": 164,
      "<0x6F>": 165,
      "<0x70>": 166,
      "<0x71>": 167,
      "<0x72>": 168,
      "<0x73>": 169,
      "<0x74>": 170,
      "<0x75>": 171,
      "<0x76>": 172,
      "<0x77>": 173,
      "<0x78>": 174,
      "<0x79>": 175,
      "<0x7A>": 176,
      "<0x7B>": 177,
      "<0x7C>": 178,
      "<0x7D>": 179,
      "<0x7E>": 180,
      "<0x7F>": 181,
      "<0x80>": 182,
      "<0x81>": 183,
      "<0x82>": 184,
      "<0x83>": 185,
      "<0x84>": 186,
      "<0x85>": 187,
      "<0x86>": 188,
      "<0x87>": 189,
      "<0x88>": 190,
      "<0x89>": 191,
      "<0x8A>": 192,
      "<0x8B>": 193,
      "<0x8C>": 194,
      "<0x8D>": 195,
      "<0x8E>": 196,
      "<0x8F>": 197,
      "<0x90>": 198,
      "<0x91>": 199,
      "<0x92>": 200,
      "<0x93>": 201,
      "<0x94>": 202,
      "<0x95>": 203,
      "<0x96>": 204,
      "<0x97>": 205,
      "<0x98>": 206,
      "<0x99>": 207,
      "<0x9A>": 208,
      "<0x9B>": 209,
      "<0x9C>": 210,
      "<0x9D>": 211,
      "<0x9E>": 212,
      "<0x9F>": 213,
      "<0xA0>": 214,
      "<0xA1>": 215,
      "<0xA2>": 216,
      "<0xA3>": 217,
      "<0xA4>": 218,
      "<0xA5>": 219,
      "<0xA6>": 220,
      "<0xA7>": 221,
      "<0xA8>": 222,
      "<0xA9>": 223,
      "<0xAA>": 224,
      "<0xAB>": 225,
      "<0xAC>": 226,
      "<0xAD>": 227,
      "<0xAE>": 228,
      "<0xAF>": 229,
      "<0xB0>": 230,
      "<0xB1>": 231,
      "<0xB2>": 232,
      "<0xB3>": 233,
      "<0xB4>": 234,
      "<0xB5>": 235,
      "<0xB6>": 236,
      "<0xB7>": 237,
      "<0xB8>": 238,
      "<0xB9>": 239,
      "<0xBA>": 240,
      "<0xBB>": 241,
      "<0xBC>": 242,
      "<0xBD>": 243,
      "<0xBE>": 244,
      "<0xBF>": 245,
      "<0xC0>": 246,
      "<0xC1>": 247,
      "<0xC2>": 248,
      "<0xC3>": 249,
      "<0xC4>": 250,
      "<0xC5>": 251,
      "<0xC6>": 252,
      "<0xC7>": 253,
      "<0xC8>": 254,
      "<0xC9>": 255,
      "<0xCA>": 256,
      "<0xCB>": 257,
      "<0xCC>": 258,
      "<0xCD>": 259,
      "<0xCE>": 260,
      "<0xCF>": 261,
      "<0xD0>": 262,
      "<0xD1>": 263,
      "<0xD2>": 264,
      "<0xD3>": 265,
      "<0xD4>": 266,
      "<0xD5>": 267,
      "<0xD6>": 268,
      "<0xD7>": 269,
      "<0xD8>": 270,
      "<0xD9>": 271,
      "<0xDA>": 272,
      "<0xDB>": 273,
      "<0xDC>": 274,
      "<0xDD>": 275,
      "<0xDE>": 276,
      "<0xDF>": 277,
      "<0xE0>": 278,
      "<0xE1>": 279,
      "<0xE2>": 280,
      "<0xE3>": 281,
      "<0xE4>": 282,
      "<0xE5>": 283,
      "<0xE6>": 284,
      "<0xE7>": 285,
      "<0xE8>": 286,
      "<0xE9>": 287,
      "<0xEA>": 288,
      "<0xEB>": 289,
      "<0xEC>": 290,
      "<0xED>": 291,
      "<0xEE>": 292,
      "<0xEF>": 293,
      "<0xF0>": 294,
      "<0xF1>": 295,
      "<0xF2>": 296,
      "<0xF3>": 297,
      "<0xF4>": 298,
      "<0xF5>": 299,
      "<0xF6>": 300,
      "<0xF7>": 301,
      "<0xF8>": 302,
      "<0xF9>": 303,
      "<0xFA>": 304,
      "<0xFB>": 305,
      "<0xFC>": 306,
      "<0xFD>": 307,
      "<0xFE>": 308,
      "<0xFF>": 309,
      "▁t": 310,
      "▁a": 311,
      "he": 312,
      "in": 313,
      "re": 314,
      "▁o": 315,
      "▁the": 316,
      "▁s": 317,
      "▁w": 318,
      "er": 319,
      "ou": 320,
      "at": 321,
      "on": 322,
      "▁c": 323,
      "nd": 324,
      "it": 325,
      "▁b": 326,
      "is": 327,
      "▁f": 328,
      "ing": 329,
      "or": 330,
      "en": 331,
      "es": 332,
      "▁to": 333,
      "▁p": 334,
      "▁m": 335,
      "an": 336,
      "ed": 337,
      "al": 338,
      "▁of": 339,
      "▁d": 340,
      "▁in": 341,
      "▁h": 342,
      "▁and": 343,
      "ar": 344,
      "▁th": 345,
      "le": 346,
      "om": 347,
      "as": 348,
      "▁y": 349,
      "ic": 350,
      "ll": 351,
      "ion": 352,
      "▁l": 353,
      "▁you": 354,
      "ve": 355,
      "▁n": 356,
      "▁I": 357,
      "▁g": 358,
      "▁e": 359,
      "▁be": 360,
      "st": 361,
      "▁re": 362,
      "ent": 363,
      "ly": 364,
      "ot": 365,
      "ow": 366,
      "ut": 367,
      "▁is": 368,
      "▁on": 369,
      "▁for": 370,
      "ct": 371,
      "et": 372,
      "ay": 373,
      "id": 374,
      "ro": 375,
      "▁that": 376,
      "se": 377,
      "▁u": 378,
      "im": 379,
      "▁it": 380,
      "▁ha": 381,
      "ver": 382,
      "ce": 383,
      "ur": 384,
      "ld": 385,
      "▁T": 386,
      "▁he": 387,
      "ig": 388,
      "▁st": 389,
      "ith": 390,
      "▁we": 391,
      "ch": 392,
      "▁with": 393,
      "▁wh": 394,
      "ra": 395,
      "▁an": 396,
      "ation": 397,
      "oo": 398,
      "ir": 399,
      "ke": 400,
      "▁S": 401,
      "ill": 402,
      "▁A": 403,
      "▁as": 404,
      "ad": 405,
      "am": 406,
      "▁are": 407,
      "if": 408,
      "il": 409,
      "ter": 410,
      "▁C": 411,
      "▁have": 412,
      "▁your": 413,
      "her": 414,
      "..": 415,
      "▁or": 416,
      "▁se": 417,
      "▁pro": 418,
      "ore": 419,
      "ers": 420,
      "ess": 421,
      "pp": 422,
      "▁con": 423,
      "▁at": 424,
      "ge": 425,
      "▁com": 426,
      "▁ne": 427,
      "▁this": 428,
      "ol": 429,
      "▁was": 430,
      "ate": 431,
      "ul": 432,
      "▁not": 433,
      "ht": 434,
      "▁su": 435,
      "ck": 436,
      "th": 437,
      "▁M": 438,
      "est": 439,
      "▁de": 440,
      "ri": 441,
      "ment": 442,
      "op": 443,
      "ould": 444,
      "▁ex": 445,
      "▁W": 446,
      "20": 447,
      "ust": 448,
      "▁can": 449,
      "rom": 450,
      "▁do": 451,
      "ant": 452,
      "▁me": 453,
      "▁B": 454,
      "▁sh": 455,
      "ab": 456,
      "ome": 457,
      "us": 458,
      "qu": 459,
      "什么": 460,
      "pe": 461,
      "▁r": 462,
      "▁P": 463,
      "▁ab": 464,
      "ive": 465,
      "nt": 466,
      "out": 467,
      "ist": 468,
      "▁The": 469,
      "▁H": 470,
      "▁will": 471,
      "ain": 472,
      "▁v": 473,
      "ight": 474,
      "art": 475,
      "▁so": 476,
      "ort": 477,
      "▁al": 478,
      "▁wor": 479,
      "▁from": 480,
      "ity": 481,
      "▁ch": 482,
      "ally": 483,
      "▁le": 484,
      "▁1": 485,
      "▁all": 486,
      "res": 487,
      "un": 488,
      "▁my": 489,
      "▁k": 490,
      "一个": 491,
      "▁j": 492,
      "▁(": 493,
      "▁but": 494,
      "ies": 495,
      "and": 496,
      "ost": 497,
      "没有": 498,
      "os": 499,
      "um": 500,
      "▁D": 501,
      "▁by": 502,
      "The": 503,
      "▁li": 504,
      "all": 505,
      "el": 506,
      "▁F": 507,
      "em": 508,
      "ard": 509,
      "可以": 510,
      "our": 511,
      "oug": 512,
      "▁whe": 513,
      "red": 514,
      "king": 515,
      "▁they": 516,
      "ear": 517,
      "...": 518,
      "▁out": 519,
      "very": 520,
      "one": 521,
      "ie": 522,
      "▁up": 523,
      "ake": 524,
      "ast": 525,
      "ide": 526,
      "▁pl": 527,
      "我们": 528,
      "▁us": 529,
      "▁more": 530,
      "▁R": 531,
      "ci": 532,
      "▁G": 533,
      "▁about": 534,
      "ime": 535,
      "▁has": 536,
      "ud": 537,
      "ind": 538,
      "▁L": 539,
      "od": 540,
      "▁N": 541,
      "▁one": 542,
      "fe": 543,
      "▁E": 544,
      "ice": 545,
      "▁go": 546,
      "ther": 547,
      "ood": 548,
      "▁int": 549,
      "201": 550,
      "iv": 551,
      "per": 552,
      "不是": 553,
      "ite": 554,
      "ure": 555,
      "ack": 556,
      "ry": 557,
      "pt": 558,
      "▁O": 559,
      "自己": 560,
      "▁ad": 561,
      "ook": 562,
      "▁their": 563,
      "▁en": 564,
      "▁like": 565,
      "ound": 566,
      "ong": 567,
      "▁our": 568,
      "ine": 569,
      "lo": 570,
      "ich": 571,
      "▁who": 572,
      "▁any": 573,
      "are": 574,
      "age": 575,
      "ag": 576,
      "▁comp": 577,
      "▁sa": 578,
      "▁get": 579,
      "▁some": 580,
      "ough": 581,
      "▁kn": 582,
      "reat": 583,
      "ions": 584,
      "▁fe": 585,
      "▁lo": 586,
      "▁time": 587,
      "ous": 588,
      "00": 589,
      "▁what": 590,
      "▁man": 591,
      "▁te": 592,
      "cc": 593,
      "▁if": 594,
      "怎么": 595,
      "▁his": 596,
      "▁would": 597,
      "able": 598,
      "▁there": 599,
      "就是": 600,
      "▁Th": 601,
      "▁ar": 602,
      "▁im": 603,
      "▁them": 604,
      "▁just": 605,
      "▁“": 606,
      "act": 607,
      "ays": 608,
      "▁know": 609,
      "so": 610,
      "ame": 611,
      "▁been": 612,
      "▁Y": 613,
      "▁year": 614,
      "▁other": 615,
      "ven": 616,
      "现在": 617,
      "▁had": 618,
      "ks": 619,
      "ac": 620,
      "▁qu": 621,
      "▁pe": 622,
      "▁cont": 623,
      "for": 624,
      "▁which": 625,
      "au": 626,
      "ance": 627,
      "ep": 628,
      "知道": 629,
      "ase": 630,
      "▁\"": 631,
      "▁when": 632,
      "ak": 633,
      "▁than": 634,
      "ace": 635,
      "▁It": 636,
      "ip": 637,
      "▁cl": 638,
      "ans": 639,
      "这个": 640,
      "▁J": 641,
      "ru": 642,
      "iz": 643,
      "▁ag": 644,
      "▁her": 645,
      "▁app": 646,
      "ail": 647,
      "ble": 648,
      "ople": 649,
      "▁res": 650,
      "▁off": 651,
      "ber": 652,
      "▁am": 653,
      "中国": 654,
      "▁need": 655,
      "du": 656,
      "▁how": 657,
      "ated": 658,
      "ree": 659,
      "时候": 660,
      "ach": 661,
      "▁inc": 662,
      "end": 663,
      "▁new": 664,
      "▁per": 665,
      "ction": 666,
      "▁people": 667,
      "ings": 668,
      "ence": 669,
      "▁were": 670,
      "▁no": 671,
      "ire": 672,
      "ink": 673,
      "▁dis": 674,
      "ap": 675,
      "公司": 676,
      "ations": 677,
      "▁un": 678,
      "▁over": 679,
      "▁2": 680,
      "▁part": 681,
      "ff": 682,
      "ult": 683,
      "ign": 684,
      "▁U": 685,
      "ount": 686,
      "pl": 687,
      "ile": 688,
      "own": 689,
      "ue": 690,
      "Th": 691,
      "form": 692,
      "▁work": 693,
      "▁bec": 694,
      "ass": 695,
      "hing": 696,
      "ick": 697,
      "itt": 698,
      "工作": 699,
      "▁also": 700,
      "▁she": 701,
      "▁sp": 702,
      "ary": 703,
      "ond": 704,
      "vel": 705,
      "ress": 706,
      "▁want": 707,
      "▁pr": 708,
      "▁pre": 709,
      "▁said": 710,
      "▁ser": 711,
      "▁see": 712,
      "ild": 713,
      "▁imp": 714,
      "--": 715,
      "▁make": 716,
      "ical": 717,
      "▁spe": 718,
      "他们": 719,
      "▁don": 720,
      "还是": 721,
      "ub": 722,
      "og": 723,
      "ne": 724,
      "ving": 725,
      "▁into": 726,
      "如果": 727,
      "▁every": 728,
      "▁In": 729,
      "ause": 730,
      "▁tra": 731,
      "lp": 732,
      "ose": 733,
      "▁may": 734,
      "▁good": 735,
      "ia": 736,
      "ents": 737,
      "▁very": 738,
      "ark": 739,
      "int": 740,
      "uch": 741,
      "▁We": 742,
      "▁gr": 743,
      "▁af": 744,
      "▁could": 745,
      "▁help": 746,
      "▁3": 747,
      "▁only": 748,
      "nder": 749,
      "irst": 750,
      "▁rec": 751,
      "一下": 752,
      "ning": 753,
      "▁back": 754,
      "ition": 755,
      "▁ro": 756,
      "的人": 757,
      "ren": 758,
      "▁acc": 759,
      "问题": 760,
      "▁St": 761,
      "我的": 762,
      "ial": 763,
      "ors": 764,
      "sel": 765,
      "▁now": 766,
      "▁did": 767,
      "可能": 768,
      "wn": 769,
      "▁-": 770,
      "▁much": 771,
      "▁way": 772,
      "这样": 773,
      "▁tw": 774,
      "▁comm": 775,
      "你的": 776,
      "ord": 777,
      "▁fo": 778,
      "ect": 779,
      "▁most": 780,
      "因为": 781,
      "ens": 782,
      "时间": 783,
      "▁em": 784,
      "▁well": 785,
      "▁him": 786,
      "▁thr": 787,
      "▁He": 788,
      "▁bet": 789,
      "但是": 790,
      "▁co": 791,
      "▁should": 792,
      "▁–": 793,
      "10": 794,
      "▁these": 795,
      "cial": 796,
      "▁act": 797,
      "朋友": 798,
      "lic": 799,
      "▁201": 800,
      "▁sc": 801,
      "▁You": 802,
      "▁too": 803,
      "ang": 804,
      "▁look": 805,
      "ful": 806,
      "▁think": 807,
      "▁great": 808,
      "▁first": 809,
      "▁use": 810,
      "▁here": 811,
      "▁even": 812,
      "▁Ch": 813,
      "不要": 814,
      "ory": 815,
      "av": 816,
      "▁K": 817,
      "▁tr": 818,
      "ife": 819,
      "都是": 820,
      "ish": 821,
      "we": 822,
      "▁des": 823,
      "▁years": 824,
      "很多": 825,
      "fore": 826,
      "▁under": 827,
      "所以": 828,
      "ily": 829,
      "ious": 830,
      "ved": 831,
      "▁many": 832,
      "ull": 833,
      "▁its": 834,
      "那么": 835,
      "ater": 836,
      "发展": 837,
      "ons": 838,
      "We": 839,
      "已经": 840,
      "rent": 841,
      "200": 842,
      "喜欢": 843,
      "▁wr": 844,
      "ments": 845,
      "ade": 846,
      "▁read": 847,
      "omet": 848,
      "ual": 849,
      "igh": 850,
      "ces": 851,
      "▁add": 852,
      "▁right": 853,
      "今天": 854,
      "▁bu": 855,
      "ise": 856,
      "▁really": 857,
      "hed": 858,
      "bs": 859,
      "▁then": 860,
      "▁po": 861,
      "▁cons": 862,
      ".”": 863,
      "▁ke": 864,
      "day": 865,
      "other": 866,
      "ool": 867,
      "那个": 868,
      "ove": 869,
      "▁through": 870,
      "▁dif": 871,
      "tern": 872,
      "的是": 873,
      "ting": 874,
      "aking": 875,
      "▁pers": 876,
      "hat": 877,
      "▁because": 878,
      "▁br": 879,
      "▁ind": 880,
      "fect": 881,
      "▁This": 882,
      "▁find": 883,
      "好的": 884,
      "▁day": 885,
      "▁take": 886,
      "▁two": 887,
      "▁prov": 888,
      "服务": 889,
      "▁gu": 890,
      "vers": 891,
      "▁where": 892,
      "xt": 893,
      "▁ra": 894,
      "▁long": 895,
      "ple": 896,
      "需要": 897,
      "hen": 898,
      "ere": 899,
      "▁ph": 900,
      "也不": 901,
      "▁own": 902,
      "li": 903,
      "▁does": 904,
      "It": 905,
      "....": 906,
      "▁after": 907,
      "▁V": 908,
      "lud": 909,
      "ates": 910,
      "ating": 911,
      "ities": 912,
      "▁start": 913,
      "oy": 914,
      "孩子": 915,
      "oss": 916,
      "iness": 917,
      "▁att": 918,
      "你们": 919,
      "▁supp": 920,
      "▁rem": 921,
      "的时候": 922,
      "ject": 923,
      "ms": 924,
      "ict": 925,
      "pect": 926,
      "企业": 927,
      "▁sm": 928,
      "ty": 929,
      "urn": 930,
      "▁down": 931,
      "▁bus": 932,
      "▁aw": 933,
      "),": 934,
      "▁say": 935,
      "ible": 936,
      "▁dec": 937,
      ".\"": 938,
      "的一": 939,
      "▁going": 940,
      "▁rep": 941,
      "llow": 942,
      "▁again": 943,
      "▁exper": 944,
      "也是": 945,
      "ft": 946,
      "ange": 947,
      "了一": 948,
      "▁those": 949,
      "▁inv": 950,
      "mer": 951,
      "iew": 952,
      "▁somet": 953,
      "▁being": 954,
      "▁before": 955,
      "▁5": 956,
      "get": 957,
      "▁reg": 958,
      "iss": 959,
      "哪里": 960,
      "self": 961,
      "▁inform": 962,
      "les": 963,
      "还有": 964,
      "▁wee": 965,
      "▁such": 966,
      "com": 967,
      "▁4": 968,
      "▁produ": 969,
      "▁love": 970,
      "ices": 971,
      "这么": 972,
      "ert": 973,
      "市场": 974,
      "ob": 975,
      "▁bel": 976,
      "真的": 977,
      "世界": 978,
      "▁person": 979,
      "▁rel": 980,
      "ew": 981,
      "觉得": 982,
      "▁serv": 983,
      "cess": 984,
      "In": 985,
      "te": 986,
      "ually": 987,
      "This": 988,
      "▁ev": 989,
      "不会": 990,
      "ought": 991,
      "▁best": 992,
      "ific": 993,
      "人的": 994,
      "大家": 995,
      "▁post": 996,
      "▁ins": 997,
      "生活": 998,
      "你在": 999,
      "▁happ": 1000,
      "▁includ": 1001,
      "▁fin": 1002,
      "国家": 1003,
      "▁made": 1004,
      "到了": 1005,
      "管理": 1006,
      "不能": 1007,
      "ves": 1008,
      "▁life": 1009,
      "ced": 1010,
      "▁ent": 1011,
      "进行": 1012,
      "lect": 1013,
      "▁feel": 1014,
      "▁mon": 1015,
      "ittle": 1016,
      "be": 1017,
      "第一": 1018,
      "▁And": 1019,
      "▁stud": 1020,
      "非常": 1021,
      "▁still": 1022,
      "▁home": 1023,
      "▁bl": 1024,
      "一点": 1025,
      "any": 1026,
      "ave": 1027,
      "aw": 1028,
      "一起": 1029,
      "▁che": 1030,
      "▁world": 1031,
      "▁last": 1032,
      "▁If": 1033,
      "▁play": 1034,
      "▁things": 1035,
      "▁sy": 1036,
      "▁car": 1037,
      "▁diffe": 1038,
      "riend": 1039,
      ").": 1040,
      "thing": 1041,
      "ib": 1042,
      "▁lot": 1043,
      "alth": 1044,
      "oth": 1045,
      "▁end": 1046,
      "ility": 1047,
      "出来": 1048,
      "▁sec": 1049,
      "old": 1050,
      "ank": 1051,
      "美国": 1052,
      "▁ac": 1053,
      "ways": 1054,
      "als": 1055,
      "▁show": 1056,
      "经济": 1057,
      "▁few": 1058,
      "▁business": 1059,
      "▁call": 1060,
      "▁little": 1061,
      "▁information": 1062,
      "干嘛": 1063,
      "If": 1064,
      "手机": 1065,
      "▁But": 1066,
      "▁fam": 1067,
      "19": 1068,
      "▁set": 1069,
      "ract": 1070,
      "You": 1071,
      "大的": 1072,
      "▁col": 1073,
      "ian": 1074,
      "ram": 1075,
      "lease": 1076,
      "ular": 1077,
      "不错": 1078,
      "▁something": 1079,
      "ph": 1080,
      "ident": 1081,
      "ased": 1082,
      "▁inst": 1083,
      "感觉": 1084,
      "自己的": 1085,
      "ath": 1086,
      "▁hand": 1087,
      "▁fl": 1088,
      "gg": 1089,
      "▁around": 1090,
      "比较": 1091,
      "你是": 1092,
      "▁sim": 1093,
      "看到": 1094,
      "不知道": 1095,
      "开始": 1096,
      "read": 1097,
      "the": 1098,
      "▁high": 1099,
      "its": 1100,
      "ational": 1101,
      "uring": 1102,
      "不过": 1103,
      "不好": 1104,
      "ince": 1105,
      "▁pol": 1106,
      "imes": 1107,
      "velop": 1108,
      "▁real": 1109,
      "这些": 1110,
      "▁child": 1111,
      "▁sure": 1112,
      "ys": 1113,
      "ures": 1114,
      "▁follow": 1115,
      "▁min": 1116,
      "000": 1117,
      "ited": 1118,
      "▁19": 1119,
      "▁come": 1120,
      "ower": 1121,
      "使用": 1122,
      "▁$": 1123,
      "ever": 1124,
      "▁requ": 1125,
      "▁same": 1126,
      "erest": 1127,
      "ather": 1128,
      "ward": 1129,
      "重要": 1130,
      "▁ass": 1131,
      "up": 1132,
      "▁try": 1133,
      "ont": 1134,
      "▁got": 1135,
      "其他": 1136,
      "应该": 1137,
      "这里": 1138,
      "▁count": 1139,
      "ative": 1140,
      "ec": 1141,
      "给我": 1142,
      "arch": 1143,
      "ef": 1144,
      "▁book": 1145,
      "▁art": 1146,
      "cy": 1147,
      "提供": 1148,
      "▁experi": 1149,
      "ooking": 1150,
      "ason": 1151,
      "”,": 1152,
      "▁op": 1153,
      "hip": 1154,
      "air": 1155,
      "▁disc": 1156,
      "是一": 1157,
      "arket": 1158,
      "iting": 1159,
      "技术": 1160,
      "社会": 1161,
      "▁always": 1162,
      "▁cr": 1163,
      "方面": 1164,
      "gan": 1165,
      "ener": 1166,
      "▁never": 1167,
      "▁vis": 1168,
      "oc": 1169,
      "12": 1170,
      "▁sur": 1171,
      "arn": 1172,
      "ics": 1173,
      "产品": 1174,
      "为什么": 1175,
      "▁keep": 1176,
      "▁let": 1177,
      "▁place": 1178,
      "东西": 1179,
      "ote": 1180,
      "ied": 1181,
      "und": 1182,
      "▁blo": 1183,
      "▁while": 1184,
      "▁used": 1185,
      "akes": 1186,
      "▁eas": 1187,
      "▁av": 1188,
      "电话": 1189,
      "▁loc": 1190,
      "chool": 1191,
      "▁care": 1192,
      "▁sub": 1193,
      "投资": 1194,
      "stem": 1195,
      "一定": 1196,
      "▁friend": 1197,
      "的话": 1198,
      "▁cour": 1199,
      ",”": 1200,
      "一些": 1201,
      "30": 1202,
      "信息": 1203,
      "▁each": 1204,
      "▁pres": 1205,
      "led": 1206,
      "ouse": 1207,
      "hes": 1208,
      "▁better": 1209,
      "个人": 1210,
      "▁point": 1211,
      "ng": 1212,
      "通过": 1213,
      "▁interest": 1214,
      "olog": 1215,
      "我是": 1216,
      "▁num": 1217,
      "ss": 1218,
      "地方": 1219,
      "cept": 1220,
      "▁might": 1221,
      "▁str": 1222,
      "▁must": 1223,
      "给你": 1224,
      "omm": 1225,
      "研究": 1226,
      "。”": 1227,
      "一直": 1228,
      "1.": 1229,
      "ues": 1230,
      "▁list": 1231,
      "情况": 1232,
      "了吗": 1233,
      "atch": 1234,
      "▁put": 1235,
      "▁pub": 1236,
      "▁month": 1237,
      "▁found": 1238,
      "▁6": 1239,
      "50": 1240,
      "而且": 1241,
      "政府": 1242,
      "ax": 1243,
      "▁different": 1244,
      "▁They": 1245,
      "▁med": 1246,
      "那你": 1247,
      "▁prog": 1248,
      "▁adv": 1249,
      "▁develop": 1250,
      "▁cle": 1251,
      "这是": 1252,
      "line": 1253,
      "起来": 1254,
      "如何": 1255,
      "▁ide": 1256,
      "▁quest": 1257,
      "上的": 1258,
      "▁det": 1259,
      "以及": 1260,
      "一样": 1261,
      "教育": 1262,
      "ner": 1263,
      "▁exp": 1264,
      "▁fun": 1265,
      "▁mem": 1266,
      "不同": 1267,
      "▁seem": 1268,
      "▁ext": 1269,
      "过来": 1270,
      "ness": 1271,
      "这种": 1272,
      "▁i": 1273,
      "alk": 1274,
      "▁import": 1275,
      "表示": 1276,
      "az": 1277,
      "晚上": 1278,
      "der": 1279,
      "▁cur": 1280,
      "▁comple": 1281,
      "希望": 1282,
      "只是": 1283,
      ",\"": 1284,
      "ute": 1285,
      "▁Re": 1286,
      "▁next": 1287,
      "ix": 1288,
      "▁poss": 1289,
      "然后": 1290,
      "大学": 1291,
      "oup": 1292,
      "▁system": 1293,
      "安全": 1294,
      "▁give": 1295,
      "目前": 1296,
      "▁product": 1297,
      "上班": 1298,
      "▁thing": 1299,
      "▁plan": 1300,
      "▁proble": 1301,
      "一般": 1302,
      "erm": 1303,
      "ention": 1304,
      "他的": 1305,
      "stand": 1306,
      "▁fact": 1307,
      "▁old": 1308,
      "▁market": 1309,
      "▁So": 1310,
      "ody": 1311,
      "▁char": 1312,
      "▁support": 1313,
      "▁ret": 1314,
      "▁10": 1315,
      "主要": 1316,
      "▁sk": 1317,
      "是不是": 1318,
      "ize": 1319,
      "▁Un": 1320,
      "unity": 1321,
      "less": 1322,
      "▁health": 1323,
      "▁run": 1324,
      "......": 1325,
      "11": 1326,
      "ell": 1327,
      "▁giv": 1328,
      "ork": 1329,
      "▁thought": 1330,
      ":“": 1331,
      "▁another": 1332,
      "▁without": 1333,
      "▁trans": 1334,
      "对于": 1335,
      "▁iss": 1336,
      "pr": 1337,
      "▁ask": 1338,
      "chn": 1339,
      "ten": 1340,
      "发现": 1341,
      "部分": 1342,
      "▁big": 1343,
      "▁hard": 1344,
      "▁free": 1345,
      "▁hop": 1346,
      "ution": 1347,
      "▁both": 1348,
      "▁lead": 1349,
      "▁gra": 1350,
      "ts": 1351,
      "▁full": 1352,
      "ween": 1353,
      "▁inter": 1354,
      "▁pur": 1355,
      "oney": 1356,
      "▁top": 1357,
      "所有": 1358,
      "rib": 1359,
      "▁As": 1360,
      "▁mo": 1361,
      "或者": 1362,
      "其实": 1363,
      "两个": 1364,
      "ustom": 1365,
      "▁pay": 1366,
      "ages": 1367,
      "▁def": 1368,
      "▁ear": 1369,
      "▁why": 1370,
      "要求": 1371,
      "▁belie": 1372,
      "只有": 1373,
      "amp": 1374,
      "con": 1375,
      "▁sign": 1376,
      "▁week": 1377,
      "ertain": 1378,
      "我就": 1379,
      "人民": 1380,
      "▁provid": 1381,
      "中的": 1382,
      "▁family": 1383,
      "▁prof": 1384,
      "▁days": 1385,
      "▁aut": 1386,
      "vern": 1387,
      "▁bo": 1388,
      "▁7": 1389,
      "▁ed": 1390,
      "回来": 1391,
      "▁...": 1392,
      "▁since": 1393,
      "明天": 1394,
      "一次": 1395,
      "▁There": 1396,
      "!!": 1397,
      "▁design": 1398,
      "里面": 1399,
      "▁far": 1400,
      "oun": 1401,
      "▁ob": 1402,
      "▁wom": 1403,
      "▁school": 1404,
      "▁site": 1405,
      "你说": 1406,
      "成为": 1407,
      "view": 1408,
      "选择": 1409,
      "ee": 1410,
      "▁able": 1411,
      "▁mod": 1412,
      "▁between": 1413,
      "活动": 1414,
      "环境": 1415,
      "▁looking": 1416,
      "▁sl": 1417,
      "▁200": 1418,
      "ired": 1419,
      "ines": 1420,
      "学习": 1421,
      "文化": 1422,
      "的事": 1423,
      "学生": 1424,
      "▁open": 1425,
      "ient": 1426,
      "▁important": 1427,
      "2.": 1428,
      "▁didn": 1429,
      "影响": 1430,
      "▁tri": 1431,
      "▁rest": 1432,
      "▁An": 1433,
      "▁process": 1434,
      "ality": 1435,
      "同时": 1436,
      "What": 1437,
      "方式": 1438,
      "ably": 1439,
      "价格": 1440,
      "▁three": 1441,
      "吃饭": 1442,
      "项目": 1443,
      "15": 1444,
      "▁.": 1445,
      "▁gener": 1446,
      "▁tell": 1447,
      "ering": 1448,
      "atter": 1449,
      "能力": 1450,
      "▁team": 1451,
      "▁For": 1452,
      "▁away": 1453,
      "▁met": 1454,
      "▁head": 1455,
      "多少": 1456,
      "▁experience": 1457,
      "▁8": 1458,
      "▁resp": 1459,
      "很好": 1460,
      "And": 1461,
      "▁el": 1462,
      "joy": 1463,
      "作为": 1464,
      "▁appro": 1465,
      "▁small": 1466,
      "北京": 1467,
      "▁webs": 1468,
      "▁lar": 1469,
      "我在": 1470,
      "今年": 1471,
      "ash": 1472,
      "anks": 1473,
      "了解": 1474,
      "都不": 1475,
      "国际": 1476,
      "▁avail": 1477,
      "irect": 1478,
      "ared": 1479,
      "▁ref": 1480,
      "ale": 1481,
      "▁Wh": 1482,
      "----": 1483,
      "▁val": 1484,
      "▁cor": 1485,
      "ety": 1486,
      "▁pass": 1487,
      "我不": 1488,
      "here": 1489,
      "▁partic": 1490,
      "之后": 1491,
      "▁conf": 1492,
      "睡觉": 1493,
      "ffect": 1494,
      "ession": 1495,
      "▁form": 1496,
      "▁state": 1497,
      "▁less": 1498,
      "▁kind": 1499,
      "▁cre": 1500,
      "意思": 1501,
      "第二": 1502,
      "▁pri": 1503,
      "去了": 1504,
      "de": 1505,
      "ah": 1506,
      "io": 1507,
      "ows": 1508,
      "ric": 1509,
      "ross": 1510,
      "中心": 1511,
      "▁contin": 1512,
      "ense": 1513,
      "cer": 1514,
      "ately": 1515,
      "我們": 1516,
      "▁build": 1517,
      "认为": 1518,
      "▁opp": 1519,
      "▁custom": 1520,
      "▁ever": 1521,
      "bers": 1522,
      "▁ty": 1523,
      "▁number": 1524,
      "有点": 1525,
      "▁today": 1526,
      "▁creat": 1527,
      "▁result": 1528,
      "▁hour": 1529,
      "▁That": 1530,
      "▁techn": 1531,
      "gin": 1532,
      "城市": 1533,
      "There": 1534,
      "▁done": 1535,
      "▁sol": 1536,
      "▁using": 1537,
      "▁How": 1538,
      "uc": 1539,
      ",“": 1540,
      "好了": 1541,
      "我说": 1542,
      "ata": 1543,
      "以后": 1544,
      "▁inf": 1545,
      "▁understand": 1546,
      "▁money": 1547,
      "特别": 1548,
      "▁during": 1549,
      "meric": 1550,
      "关系": 1551,
      "loy": 1552,
      "ining": 1553,
      "▁She": 1554,
      "▁stand": 1555,
      "▁course": 1556,
      "▁effect": 1557,
      "ants": 1558,
      "ars": 1559,
      "那里": 1560,
      "来的": 1561,
      "▁available": 1562,
      "▁cost": 1563,
      "ically": 1564,
      "游戏": 1565,
      "▁enough": 1566,
      "uss": 1567,
      "有没有": 1568,
      "▁service": 1569,
      "aut": 1570,
      "▁turn": 1571,
      "这一": 1572,
      "专业": 1573,
      "to": 1574,
      "我想": 1575,
      "▁sit": 1576,
      "不到": 1577,
      "行业": 1578,
      "▁company": 1579,
      "▁9": 1580,
      "▁main": 1581,
      "虽然": 1582,
      "▁exam": 1583,
      "▁dri": 1584,
      "”。": 1585,
      "▁word": 1586,
      "uck": 1587,
      "设计": 1588,
      "▁meet": 1589,
      "▁working": 1590,
      "数据": 1591,
      "ized": 1592,
      "3.": 1593,
      "▁enjoy": 1594,
      "▁project": 1595,
      "aug": 1596,
      "▁gl": 1597,
      "ploy": 1598,
      "▁doing": 1599,
      "He": 1600,
      "合作": 1601,
      "▁unt": 1602,
      "更多": 1603,
      "▁blog": 1604,
      "系统": 1605,
      "有一": 1606,
      "学校": 1607,
      "▁tru": 1608,
      "味道": 1609,
      "我也": 1610,
      "▁organ": 1611,
      "▁report": 1612,
      "▁making": 1613,
      "日本": 1614,
      "▁group": 1615,
      "gy": 1616,
      "ital": 1617,
      "建设": 1618,
      "▁opt": 1619,
      "ists": 1620,
      "为了": 1621,
      "▁:": 1622,
      "land": 1623,
      "▁check": 1624,
      "▁having": 1625,
      "▁public": 1626,
      "▁New": 1627,
      "基本": 1628,
      "As": 1629,
      "18": 1630,
      "▁though": 1631,
      "▁children": 1632,
      "▁order": 1633,
      "ember": 1634,
      "相关": 1635,
      "But": 1636,
      "▁expl": 1637,
      "▁bit": 1638,
      "ined": 1639,
      "▁learn": 1640,
      "▁room": 1641,
      "▁getting": 1642,
      "直接": 1643,
      "ready": 1644,
      "内容": 1645,
      "▁change": 1646,
      "▁What": 1647,
      "——": 1648,
      "▁bre": 1649,
      "illion": 1650,
      "▁website": 1651,
      "▁least": 1652,
      "ished": 1653,
      "aring": 1654,
      "▁cent": 1655,
      "So": 1656,
      "▁rece": 1657,
      "人员": 1658,
      "来说": 1659,
      "▁invest": 1660,
      "告诉": 1661,
      "▁doesn": 1662,
      "▁night": 1663,
      "▁water": 1664,
      "ters": 1665,
      "arm": 1666,
      "▁grow": 1667,
      "年的": 1668,
      "ead": 1669,
      "之前": 1670,
      "▁var": 1671,
      "ets": 1672,
      "▁Americ": 1673,
      "▁Al": 1674,
      "me": 1675,
      "看看": 1676,
      "app": 1677,
      "▁incre": 1678,
      "▁pat": 1679,
      "你好": 1680,
      "▁actually": 1681,
      "包括": 1682,
      "▁already": 1683,
      "ccess": 1684,
      "▁case": 1685,
      "说话": 1686,
      "能够": 1687,
      "ump": 1688,
      "▁mind": 1689,
      "▁jo": 1690,
      "▁govern": 1691,
      "▁times": 1692,
      "▁law": 1693,
      "?”": 1694,
      "▁happen": 1695,
      "▁level": 1696,
      "老师": 1697,
      "▁'": 1698,
      "▁dist": 1699,
      "▁food": 1700,
      "▁power": 1701,
      "▁‘": 1702,
      "pend": 1703,
      "ature": 1704,
      "icle": 1705,
      "任何": 1706,
      "ex": 1707,
      "▁mean": 1708,
      "▁Pro": 1709,
      "▁until": 1710,
      "ock": 1711,
      "▁hum": 1712,
      "▁provide": 1713,
      "出现": 1714,
      "▁pos": 1715,
      "最后": 1716,
      "其中": 1717,
      "ling": 1718,
      "erv": 1719,
      "▁fr": 1720,
      "ins": 1721,
      ",000": 1722,
      "▁class": 1723,
      "ger": 1724,
      "▁house": 1725,
      "▁wond": 1726,
      "ider": 1727,
      "ug": 1728,
      "▁wa": 1729,
      "arent": 1730,
      "回家": 1731,
      "▁game": 1732,
      "ards": 1733,
      "你不": 1734,
      "4.": 1735,
      "▁&": 1736,
      "▁certain": 1737,
      "▁[": 1738,
      "16": 1739,
      "政策": 1740,
      "认识": 1741,
      "▁proper": 1742,
      "▁anything": 1743,
      "▁bra": 1744,
      "▁view": 1745,
      "▁second": 1746,
      "ural": 1747,
      "▁including": 1748,
      "基金": 1749,
      "ised": 1750,
      "因此": 1751,
      "新的": 1752,
      "▁chang": 1753,
      "▁spec": 1754,
      "记者": 1755,
      "▁data": 1756,
      "▁fil": 1757,
      "支持": 1758,
      "ivers": 1759,
      "▁someone": 1760,
      "有人": 1761,
      "▁intern": 1762,
      "orm": 1763,
      "▁current": 1764,
      "rist": 1765,
      "of": 1766,
      "▁past": 1767,
      "我要": 1768,
      "ivid": 1769,
      "▁services": 1770,
      "▁job": 1771,
      "一个人": 1772,
      "▁ben": 1773,
      "▁within": 1774,
      "▁beh": 1775,
      "ision": 1776,
      "rence": 1777,
      "那些": 1778,
      "▁expect": 1779,
      "ism": 1780,
      "甚至": 1781,
      "▁following": 1782,
      "▁direct": 1783,
      "▁De": 1784,
      "以前": 1785,
      "ier": 1786,
      "conom": 1787,
      "有些": 1788,
      "▁possible": 1789,
      "ently": 1790,
      "ames": 1791,
      "▁often": 1792,
      "可是": 1793,
      "▁ve": 1794,
      "▁prom": 1795,
      "gether": 1796,
      "发生": 1797,
      "▁together": 1798,
      "ruct": 1799,
      "irl": 1800,
      "▁came": 1801,
      "How": 1802,
      "▁needs": 1803,
      "▁mus": 1804,
      "▁says": 1805,
      "▁phot": 1806,
      "全球": 1807,
      "质量": 1808,
      "妈妈": 1809,
      "ology": 1810,
      "的小": 1811,
      "▁name": 1812,
      "▁leg": 1813,
      "▁mom": 1814,
      "▁program": 1815,
      "▁Sh": 1816,
      "osed": 1817,
      "平台": 1818,
      "好像": 1819,
      "▁ter": 1820,
      "▁20": 1821,
      "上海": 1822,
      "ER": 1823,
      "健康": 1824,
      "▁easy": 1825,
      "Wh": 1826,
      "25": 1827,
      "▁buy": 1828,
      "▁others": 1829,
      "▁Is": 1830,
      "ret": 1831,
      "▁ca": 1832,
      "ries": 1833,
      "▁left": 1834,
      "gr": 1835,
      "▁hope": 1836,
      "只要": 1837,
      "▁please": 1838,
      "▁online": 1839,
      "br": 1840,
      "man": 1841,
      "这样的": 1842,
      "▁believe": 1843,
      "▁web": 1844,
      "是什么": 1845,
      "▁treat": 1846,
      "▁area": 1847,
      "▁exc": 1848,
      "▁against": 1849,
      "For": 1850,
      "▁bas": 1851,
      "aj": 1852,
      "▁once": 1853,
      "ffic": 1854,
      "▁friends": 1855,
      "▁ey": 1856,
      "▁Be": 1857,
      "▁country": 1858,
      "ids": 1859,
      "▁means": 1860,
      "▁prev": 1861,
      "▁reason": 1862,
      "reen": 1863,
      "肯定": 1864,
      "ted": 1865,
      "金融": 1866,
      "组织": 1867,
      "▁complete": 1868,
      "方法": 1869,
      "▁dem": 1870,
      "▁special": 1871,
      "容易": 1872,
      "银行": 1873,
      "orn": 1874,
      "▁problem": 1875,
      "▁live": 1876,
      "▁matter": 1877,
      "▁visit": 1878,
      "生产": 1879,
      "▁story": 1880,
      "▁To": 1881,
      "▁test": 1882,
      "not": 1883,
      "▁pret": 1884,
      "ients": 1885,
      "▁pop": 1886,
      "port": 1887,
      "▁rese": 1888,
      "fter": 1889,
      "▁eng": 1890,
      "▁win": 1891,
      "▁yet": 1892,
      "老婆": 1893,
      "除了": 1894,
      "科技": 1895,
      "▁become": 1896,
      "电影": 1897,
      "原因": 1898,
      "ird": 1899,
      "▁pract": 1900,
      "iqu": 1901,
      "ps": 1902,
      "▁makes": 1903,
      "▁light": 1904,
      "ield": 1905,
      "▁short": 1906,
      "▁es": 1907,
      "cent": 1908,
      "每天": 1909,
      "ither": 1910,
      "你要": 1911,
      "fort": 1912,
      "▁My": 1913,
      "过去": 1914,
      "▁prob": 1915,
      "▁access": 1916,
      "代表": 1917,
      "▁success": 1918,
      "▁everything": 1919,
      "品牌": 1920,
      "40": 1921,
      "存在": 1922,
      "实现": 1923,
      "co": 1924,
      "utes": 1925,
      "▁equ": 1926,
      "▁vide": 1927,
      "part": 1928,
      "most": 1929,
      "关注": 1930,
      "▁allow": 1931,
      "几个": 1932,
      "▁—": 1933,
      "成功": 1934,
      "pped": 1935,
      "med": 1936,
      "必须": 1937,
      "结果": 1938,
      "都有": 1939,
      "▁employ": 1940,
      "根据": 1941,
      "照片": 1942,
      "的大": 1943,
      "▁men": 1944,
      "ency": 1945,
      "▁mar": 1946,
      "▁contro": 1947,
      "有限": 1948,
      "▁est": 1949,
      "别人": 1950,
      "When": 1951,
      "ov": 1952,
      "▁large": 1953,
      "提高": 1954,
      "注意": 1955,
      "▁Se": 1956,
      "▁God": 1957,
      "▁ann": 1958,
      "▁went": 1959,
      "▁beaut": 1960,
      "▁idea": 1961,
      "17": 1962,
      "uture": 1963,
      "cially": 1964,
      "ream": 1965,
      "cing": 1966,
      "▁side": 1967,
      "▁miss": 1968,
      "网络": 1969,
      "▁fav": 1970,
      "ases": 1971,
      "oice": 1972,
      "▁impro": 1973,
      "▁deal": 1974,
      "消费": 1975,
      "//": 1976,
      "▁stay": 1977,
      "ories": 1978,
      "过程": 1979,
      "▁young": 1980,
      "解决": 1981,
      "▁ans": 1982,
      "▁account": 1983,
      "▁Do": 1984,
      "▁months": 1985,
      "▁econom": 1986,
      "▁pa": 1987,
      "完全": 1988,
      "▁event": 1989,
      "▁perform": 1990,
      "是在": 1991,
      "uff": 1992,
      "▁personal": 1993,
      "相信": 1994,
      "分析": 1995,
      "▁local": 1996,
      "增长": 1997,
      "▁else": 1998,
      "iron": 1999,
      "你就": 2000,
      "way": 2001,
      "完成": 2002,
      "最近": 2003,
      "dition": 2004,
      "▁quick": 2005,
      "13": 2006,
      "介绍": 2007,
      "60": 2008,
      "▁women": 2009,
      "▁clo": 2010,
      "用户": 2011,
      "▁students": 2012,
      "▁won": 2013,
      "▁offer": 2014,
      "▁present": 2015,
      "▁Cl": 2016,
      "ails": 2017,
      "▁di": 2018,
      "准备": 2019,
      "▁sing": 2020,
      "ify": 2021,
      "▁move": 2022,
      "▁share": 2023,
      "ives": 2024,
      "当然": 2025,
      "出去": 2026,
      "ising": 2027,
      "▁contact": 2028,
      "部门": 2029,
      "沒有": 2030,
      "ividual": 2031,
      "▁question": 2032,
      "▁cou": 2033,
      "tt": 2034,
      "交易": 2035,
      "▁social": 2036,
      "els": 2037,
      "▁ago": 2038,
      "家里": 2039,
      "▁On": 2040,
      "▁Ar": 2041,
      "▁benef": 2042,
      "有什么": 2043,
      "▁near": 2044,
      "机构": 2045,
      "uro": 2046,
      "▁sal": 2047,
      "聊天": 2048,
      "▁opport": 2049,
      "一步": 2050,
      "alf": 2051,
      "aps": 2052,
      "▁seen": 2053,
      "▁pain": 2054,
      "ott": 2055,
      "▁everyone": 2056,
      "▁clear": 2057,
      "▁whole": 2058,
      "▁government": 2059,
      "▁hours": 2060,
      "不了": 2061,
      "精神": 2062,
      "▁oper": 2063,
      "eng": 2064,
      "An": 2065,
      "▁begin": 2066,
      "不用": 2067,
      "▁took": 2068,
      "▁fac": 2069,
      "ills": 2070,
      "▁along": 2071,
      "▁comes": 2072,
      "▁pretty": 2073,
      "二十": 2074,
      "ured": 2075,
      "▁future": 2076,
      "itive": 2077,
      "电视": 2078,
      "小时": 2079,
      "ential": 2080,
      "▁par": 2081,
      "▁trying": 2082,
      "ode": 2083,
      "▁activ": 2084,
      "pping": 2085,
      "▁const": 2086,
      "▁quite": 2087,
      "▁bad": 2088,
      "▁,": 2089,
      "有的": 2090,
      "ats": 2091,
      "tain": 2092,
      "自然": 2093,
      "80": 2094,
      "女人": 2095,
      "汽车": 2096,
      "cus": 2097,
      "是否": 2098,
      "关于": 2099,
      "▁heart": 2100,
      "hor": 2101,
      "功能": 2102,
      "inking": 2103,
      "出了": 2104,
      "aken": 2105,
      "cri": 2106,
      "历史": 2107,
      "继续": 2108,
      "地区": 2109,
      "▁probably": 2110,
      "也有": 2111,
      "全国": 2112,
      "国内": 2113,
      "▁US": 2114,
      "▁started": 2115,
      "一個": 2116,
      "▁dr": 2117,
      "增加": 2118,
      "ording": 2119,
      "基础": 2120,
      "香港": 2121,
      "▁Christ": 2122,
      "ully": 2123,
      "▁profession": 2124,
      "▁community": 2125,
      "才能": 2126,
      "100": 2127,
      "14": 2128,
      "工程": 2129,
      "▁individual": 2130,
      "▁sever": 2131,
      "▁indust": 2132,
      "▁perfect": 2133,
      "▁addition": 2134,
      "正在": 2135,
      "▁sw": 2136,
      "IN": 2137,
      "min": 2138,
      "side": 2139,
      "▁tal": 2140,
      "▁All": 2141,
      "需求": 2142,
      "▁body": 2143,
      "还要": 2144,
      "5.": 2145,
      "▁page": 2146,
      "▁air": 2147,
      "▁soon": 2148,
      "吃的": 2149,
      "▁nothing": 2150,
      "不断": 2151,
      "只能": 2152,
      "▁hot": 2153,
      "名字": 2154,
      "什么时候": 2155,
      "ajor": 2156,
      "://": 2157,
      "下来": 2158,
      "了我": 2159,
      "▁four": 2160,
      "家的": 2161,
      "▁applic": 2162,
      "计划": 2163,
      "得到": 2164,
      "美女": 2165,
      "接受": 2166,
      "inal": 2167,
      "▁Ad": 2168,
      "▁news": 2169,
      "以上": 2170,
      "ered": 2171,
      "我们的": 2172,
      "你妈": 2173,
      "aim": 2174,
      "▁hist": 2175,
      "▁dra": 2176,
      "努力": 2177,
      "lection": 2178,
      "▁bring": 2179,
      "▁cap": 2180,
      "▁educ": 2181,
      "由于": 2182,
      "▁Br": 2183,
      "▁prot": 2184,
      "▁step": 2185,
      "客户": 2186,
      "▁occ": 2187,
      "▁several": 2188,
      "获得": 2189,
      "▁pot": 2190,
      "itions": 2191,
      "还没": 2192,
      "▁Can": 2193,
      "让我": 2194,
      "▁fore": 2195,
      "ton": 2196,
      "▁polic": 2197,
      "▁face": 2198,
      "ified": 2199,
      "▁sound": 2200,
      "网站": 2201,
      "▁isn": 2202,
      "▁wonder": 2203,
      "▁told": 2204,
      "St": 2205,
      "产业": 2206,
      "▁No": 2207,
      "▁members": 2208,
      "ization": 2209,
      "ral": 2210,
      "pecially": 2211,
      "▁taking": 2212,
      "老公": 2213,
      "▁girl": 2214,
      "ances": 2215,
      "outh": 2216,
      "故事": 2217,
      "以为": 2218,
      "第三": 2219,
      "的好": 2220,
      "That": 2221,
      "美元": 2222,
      "▁quality": 2223,
      "▁talk": 2224,
      "▁When": 2225,
      "agement": 2226,
      "具有": 2227,
      "ration": 2228,
      "urance": 2229,
      "▁yourself": 2230,
      "ina": 2231,
      "On": 2232,
      "水平": 2233,
      "▁hold": 2234,
      "男人": 2235,
      "▁mor": 2236,
      "▁questions": 2237,
      "▁particular": 2238,
      "▁Fr": 2239,
      "▁nice": 2240,
      "lf": 2241,
      "ery": 2242,
      "ged": 2243,
      "ior": 2244,
      "▁focus": 2245,
      "ability": 2246,
      "天天": 2247,
      "标准": 2248,
      "iful": 2249,
      "在哪里": 2250,
      "ply": 2251,
      "ike": 2252,
      "▁below": 2253,
      "▁products": 2254,
      "▁create": 2255,
      "ury": 2256,
      "衣服": 2257,
      "▁across": 2258,
      "家庭": 2259,
      "▁called": 2260,
      "▁ris": 2261,
      "之一": 2262,
      "row": 2263,
      "2016": 2264,
      "事情": 2265,
      "?\"": 2266,
      "ains": 2267,
      "创新": 2268,
      "是我": 2269,
      "各种": 2270,
      "▁Your": 2271,
      "比如": 2272,
      "▁seems": 2273,
      "cl": 2274,
      "▁Pl": 2275,
      "▁works": 2276,
      "room": 2277,
      "机会": 2278,
      "▁example": 2279,
      "▁mil": 2280,
      "book": 2281,
      "▁given": 2282,
      "by": 2283,
      "哈哈": 2284,
      "微信": 2285,
      "▁happy": 2286,
      "我都": 2287,
      "▁sho": 2288,
      "下午": 2289,
      "来越": 2290,
      "▁lim": 2291,
      "aster": 2292,
      "My": 2293,
      "▁pict": 2294,
      "▁12": 2295,
      "▁wanted": 2296,
      "不想": 2297,
      "▁answ": 2298,
      "科学": 2299,
      "就可以": 2300,
      "ination": 2301,
      "▁major": 2302,
      "▁close": 2303,
      "▁30": 2304,
      "▁asked": 2305,
      "昨天": 2306,
      "资源": 2307,
      "%,": 2308,
      "▁email": 2309,
      "领导": 2310,
      "医院": 2311,
      "▁dev": 2312,
      "越来越": 2313,
      "selves": 2314,
      "iter": 2315,
      "▁research": 2316,
      "▁diff": 2317,
      "▁fund": 2318,
      "viron": 2319,
      "gle": 2320,
      "▁return": 2321,
      "改革": 2322,
      "一天": 2323,
      "作用": 2324,
      "▁anyone": 2325,
      "▁recomm": 2326,
      "▁offic": 2327,
      "▁discuss": 2328,
      "视频": 2329,
      "▁whether": 2330,
      "!”": 2331,
      "同学": 2332,
      "idd": 2333,
      "▁mess": 2334,
      ")。": 2335,
      "开发": 2336,
      "▁recommend": 2337,
      "▁minutes": 2338,
      "▁review": 2339,
      "样的": 2340,
      "itical": 2341,
      "▁million": 2342,
      "多的": 2343,
      "▁later": 2344,
      "▁watch": 2345,
      "帮助": 2346,
      "oint": 2347,
      "work": 2348,
      "▁Ind": 2349,
      "por": 2350,
      "未来": 2351,
      "▁elect": 2352,
      "ots": 2353,
      "ann": 2354,
      "raph": 2355,
      "因為": 2356,
      "▁18": 2357,
      "▁non": 2358,
      "use": 2359,
      "想要": 2360,
      "▁almost": 2361,
      "▁consider": 2362,
      "▁commun": 2363,
      "发布": 2364,
      "▁invol": 2365,
      "6.": 2366,
      "之间": 2367,
      "▁line": 2368,
      "业务": 2369,
      "▁Ex": 2370,
      "▁May": 2371,
      "▁above": 2372,
      "▁priv": 2373,
      "To": 2374,
      "效果": 2375,
      "不少": 2376,
      "sh": 2377,
      "▁Com": 2378,
      "ggest": 2379,
      "pos": 2380,
      "了吧": 2381,
      "▁require": 2382,
      "▁strong": 2383,
      "不得": 2384,
      "跟你": 2385,
      "▁age": 2386,
      "生的": 2387,
      "oh": 2388,
      "规定": 2389,
      "简单": 2390,
      "▁issues": 2391,
      "政治": 2392,
      "进入": 2393,
      "知识": 2394,
      "2018": 2395,
      "oose": 2396,
      "▁finan": 2397,
      "单位": 2398,
      "att": 2399,
      "▁based": 2400,
      "ON": 2401,
      "▁coming": 2402,
      "办法": 2403,
      "7.": 2404,
      "▁spend": 2405,
      "aff": 2406,
      "ched": 2407,
      "urity": 2408,
      "如此": 2409,
      "▁human": 2410,
      "▁cra": 2411,
      "lish": 2412,
      "▁reading": 2413,
      "▁Or": 2414,
      "当时": 2415,
      "lling": 2416,
      "目标": 2417,
      "实际": 2418,
      "说的": 2419,
      "▁sum": 2420,
      "爸爸": 2421,
      "你现在": 2422,
      "控制": 2423,
      "ney": 2424,
      "▁land": 2425,
      "iously": 2426,
      "▁shall": 2427,
      "▁low": 2428,
      "建议": 2429,
      "▁conne": 2430,
      "联系": 2431,
      "你怎么": 2432,
      "联网": 2433,
      "over": 2434,
      "wh": 2435,
      "ption": 2436,
      "分钟": 2437,
      "▁camp": 2438,
      "价值": 2439,
      "▁bro": 2440,
      "来了": 2441,
      "真正": 2442,
      "icult": 2443,
      "▁control": 2444,
      "▁writing": 2445,
      "性的": 2446,
      "▁video": 2447,
      "▁compan": 2448,
      "▁suggest": 2449,
      "旅游": 2450,
      "行为": 2451,
      "urther": 2452,
      "24": 2453,
      "▁chall": 2454,
      "决定": 2455,
      "领域": 2456,
      "还在": 2457,
      "where": 2458,
      "提升": 2459,
      "更加": 2460,
      "▁content": 2461,
      "身体": 2462,
      "找到": 2463,
      "▁amount": 2464,
      "idence": 2465,
      "▁defin": 2466,
      "vironment": 2467,
      "▁15": 2468,
      "0.": 2469,
      "▁either": 2470,
      "另外": 2471,
      "▁tax": 2472,
      "▁war": 2473,
      "▁rather": 2474,
      "AT": 2475,
      "一种": 2476,
      "▁forward": 2477,
      "就会": 2478,
      "模式": 2479,
      "▁agree": 2480,
      "orts": 2481,
      "▁article": 2482,
      "ides": 2483,
      "unch": 2484,
      "▁development": 2485,
      "▁Q": 2486,
      "▁words": 2487,
      "▁city": 2488,
      "左右": 2489,
      "unt": 2490,
      "▁specific": 2491,
      "▁early": 2492,
      "造成": 2493,
      "bal": 2494,
      "怎么样": 2495,
      "有限公司": 2496,
      "出的": 2497,
      "lement": 2498,
      "ium": 2499,
      "ister": 2500,
      "报告": 2501,
      "到底": 2502,
      "▁music": 2503,
      "2017": 2504,
      "责任": 2505,
      "illed": 2506,
      "▁price": 2507,
      "▁pie": 2508,
      "不仅": 2509,
      "经常": 2510,
      "▁appear": 2511,
      "面的": 2512,
      "无法": 2513,
      "是一个": 2514,
      "▁cover": 2515,
      "ator": 2516,
      "ift": 2517,
      "▁Not": 2518,
      "bo": 2519,
      "▁cut": 2520,
      "pro": 2521,
      "▁tot": 2522,
      "法律": 2523,
      "参加": 2524,
      "▁record": 2525,
      "▁especially": 2526,
      "人家": 2527,
      "销售": 2528,
      "ided": 2529,
      "now": 2530,
      "▁taken": 2531,
      "▁beautiful": 2532,
      "回去": 2533,
      "▁stop": 2534,
      "多了": 2535,
      "会议": 2536,
      "▁et": 2537,
      "fer": 2538,
      "▁Comm": 2539,
      "cu": 2540,
      "mber": 2541,
      "▁fall": 2542,
      "处理": 2543,
      "建立": 2544,
      "▁With": 2545,
      "资金": 2546,
      "let": 2547,
      "▁parent": 2548,
      "显示": 2549,
      "ried": 2550,
      "▁charact": 2551,
      "时代": 2552,
      "他说": 2553,
      "▁favor": 2554,
      "▁search": 2555,
      "▁difficult": 2556,
      "▁season": 2557,
      "有关": 2558,
      "▁break": 2559,
      "▁respons": 2560,
      "主义": 2561,
      "▁simply": 2562,
      "的地方": 2563,
      "8.": 2564,
      "though": 2565,
      "▁half": 2566,
      "come": 2567,
      "回答": 2568,
      "超过": 2569,
      "▁store": 2570,
      "ips": 2571,
      "▁leave": 2572,
      "▁address": 2573,
      "ique": 2574,
      "▁ens": 2575,
      "▁relations": 2576,
      "ission": 2577,
      "清楚": 2578,
      "RE": 2579,
      "有效": 2580,
      "▁include": 2581,
      "▁bed": 2582,
      "▁amaz": 2583,
      "▁clean": 2584,
      "的问题": 2585,
      "都会": 2586,
      "个月": 2587,
      "▁looks": 2588,
      "ware": 2589,
      "▁key": 2590,
      "▁concer": 2591,
      "▁Le": 2592,
      "iod": 2593,
      "▁Tr": 2594,
      "不可": 2595,
      "了一个": 2596,
      "▁myself": 2597,
      "值得": 2598,
      "rop": 2599,
      "她的": 2600,
      "推荐": 2601,
      "ived": 2602,
      "▁likely": 2603,
      "用的": 2604,
      "保护": 2605,
      "ians": 2606,
      "▁enc": 2607,
      "哪些": 2608,
      "▁TH": 2609,
      "▁ways": 2610,
      "▁net": 2611,
      "受到": 2612,
      "ledge": 2613,
      "空间": 2614,
      "▁simple": 2615,
      "▁Euro": 2616,
      "~~": 2617,
      "ush": 2618,
      "▁redu": 2619,
      "▁hear": 2620,
      "aterial": 2621,
      "▁compet": 2622,
      "cell": 2623,
      "就不": 2624,
      "方便": 2625,
      "我现在": 2626,
      "▁self": 2627,
      "load": 2628,
      "augh": 2629,
      "ilities": 2630,
      "▁issue": 2631,
      "ron": 2632,
      "▁typ": 2633,
      "iversity": 2634,
      "▁true": 2635,
      "ences": 2636,
      "▁prep": 2637,
      "▁moment": 2638,
      "人们": 2639,
      "▁worth": 2640,
      "▁study": 2641,
      "ctor": 2642,
      "▁wind": 2643,
      "▁purch": 2644,
      "我去": 2645,
      "共同": 2646,
      "▁however": 2647,
      "他們": 2648,
      "iday": 2649,
      "ources": 2650,
      "ional": 2651,
      "收入": 2652,
      "oogle": 2653,
      "▁problems": 2654,
      "▁necess": 2655,
      "▁entire": 2656,
      "▁needed": 2657,
      "了你": 2658,
      "酒店": 2659,
      "orth": 2660,
      "▁author": 2661,
      "urs": 2662,
      "▁subject": 2663,
      "▁vers": 2664,
      "真是": 2665,
      "▁couple": 2666,
      "▁plac": 2667,
      "干什么": 2668,
      "▁weeks": 2669,
      "▁living": 2670,
      "▁companies": 2671,
      "▁kids": 2672,
      "▁situ": 2673,
      "▁hig": 2674,
      "我觉得": 2675,
      "▁space": 2676,
      "▁value": 2677,
      "中央": 2678,
      "▁media": 2679,
      "几天": 2680,
      "oud": 2681,
      "▁At": 2682,
      "风险": 2683,
      "▁abs": 2684,
      "AN": 2685,
      "互联网": 2686,
      "▁super": 2687,
      "▁ener": 2688,
      "yle": 2689,
      "cle": 2690,
      "2015": 2691,
      "随着": 2692,
      "▁claim": 2693,
      "▁send": 2694,
      "▁eff": 2695,
      "打电话": 2696,
      "go": 2697,
      "▁cred": 2698,
      "rap": 2699,
      "来自": 2700,
      "普通": 2701,
      "used": 2702,
      "老板": 2703,
      "▁la": 2704,
      "利用": 2705,
      "▁Sp": 2706,
      "90": 2707,
      "下的": 2708,
      "▁insurance": 2709,
      "22": 2710,
      "▁tre": 2711,
      "根本": 2712,
      "适合": 2713,
      "ilar": 2714,
      "▁five": 2715,
      "▁remember": 2716,
      "父母": 2717,
      "经验": 2718,
      "媒体": 2719,
      "理解": 2720,
      "儿子": 2721,
      "▁industry": 2722,
      "▁rele": 2723,
      "心的": 2724,
      "▁Con": 2725,
      "负责": 2726,
      "▁tem": 2727,
      "集团": 2728,
      "▁common": 2729,
      "ateg": 2730,
      "做的": 2731,
      "保持": 2732,
      "比赛": 2733,
      "系列": 2734,
      "▁sci": 2735,
      "▁single": 2736,
      "▁sent": 2737,
      "▁building": 2738,
      "▁--": 2739,
      "utions": 2740,
      "全部": 2741,
      "分享": 2742,
      "light": 2743,
      "想到": 2744,
      "▁walk": 2745,
      "▁press": 2746,
      "▁mult": 2747,
      "交通": 2748,
      "ibility": 2749,
      "70": 2750,
      "▁improve": 2751,
      "une": 2752,
      "第一次": 2753,
      "▁known": 2754,
      "--------": 2755,
      "▁Europe": 2756,
      "速度": 2757,
      "▁pack": 2758,
      "▁travel": 2759,
      "▁ident": 2760,
      "传统": 2761,
      "ane": 2762,
      "▁Thanks": 2763,
      "▁environment": 2764,
      "运动": 2765,
      "▁material": 2766,
      "▁orig": 2767,
      "报道": 2768,
      "ape": 2769,
      "▁soft": 2770,
      "▁period": 2771,
      "▁dou": 2772,
      "▁deb": 2773,
      "▁due": 2774,
      "一年": 2775,
      "▁htt": 2776,
      "消息": 2777,
      "▁pick": 2778,
      "休息": 2779,
      "后来": 2780,
      "▁wrong": 2781,
      "▁financial": 2782,
      "▁item": 2783,
      "▁etc": 2784,
      "导致": 2785,
      "也可以": 2786,
      "考虑": 2787,
      "都在": 2788,
      "▁fre": 2789,
      "▁exact": 2790,
      "▁stuff": 2791,
      "▁tool": 2792,
      "這個": 2793,
      "条件": 2794,
      "▁deli": 2795,
      "ern": 2796,
      "好吗": 2797,
      "先生": 2798,
      "▁Man": 2799,
      "dd": 2800,
      "作品": 2801,
      "刚刚": 2802,
      "▁office": 2803,
      "不多": 2804,
      "▁link": 2805,
      "万元": 2806,
      "的事情": 2807,
      "▁cannot": 2808,
      "▁further": 2809,
      "快乐": 2810,
      "爱的": 2811,
      "达到": 2812,
      "chie": 2813,
      "▁Eng": 2814,
      "制度": 2815,
      "ource": 2816,
      "▁write": 2817,
      "▁One": 2818,
      "ites": 2819,
      "一定要": 2820,
      "▁front": 2821,
      "soci": 2822,
      "Al": 2823,
      "▁repl": 2824,
      "▁morning": 2825,
      "hod": 2826,
      "▁results": 2827,
      "23": 2828,
      "itely": 2829,
      "位置": 2830,
      "▁type": 2831,
      "电脑": 2832,
      "▁longer": 2833,
      "atic": 2834,
      "你有": 2835,
      "方案": 2836,
      "哪个": 2837,
      "wards": 2838,
      "ww": 2839,
      "在一起": 2840,
      "了没有": 2841,
      "正常": 2842,
      "ES": 2843,
      "漂亮": 2844,
      "imate": 2845,
      "▁ple": 2846,
      "▁phone": 2847,
      "▁United": 2848,
      "▁ready": 2849,
      "积极": 2850,
      "▁glo": 2851,
      "osp": 2852,
      "还不": 2853,
      "9.": 2854,
      "▁However": 2855,
      "ulation": 2856,
      "ference": 2857,
      "下班": 2858,
      "1,": 2859,
      "设备": 2860,
      "好好": 2861,
      "▁cop": 2862,
      "▁hon": 2863,
      "elt": 2864,
      "▁amazing": 2865,
      "▁phys": 2866,
      "新闻": 2867,
      "gs": 2868,
      "交流": 2869,
      "里的": 2870,
      "eed": 2871,
      "▁vari": 2872,
      "▁sex": 2873,
      "No": 2874,
      "▁manag": 2875,
      "▁energy": 2876,
      "▁saw": 2877,
      "▁sle": 2878,
      "▁upd": 2879,
      "坚持": 2880,
      "▁training": 2881,
      "▁heard": 2882,
      "They": 2883,
      "幸福": 2884,
      "▁eyes": 2885,
      "许多": 2886,
      "也很": 2887,
      "尤其": 2888,
      "子的": 2889,
      "ained": 2890,
      "▁wasn": 2891,
      "▁percent": 2892,
      "▁relationship": 2893,
      "uge": 2894,
      "▁feat": 2895,
      "ones": 2896,
      "成本": 2897,
      "▁nat": 2898,
      "Do": 2899,
      "自由": 2900,
      "每次": 2901,
      "asing": 2902,
      "ental": 2903,
      "▁staff": 2904,
      "▁Wor": 2905,
      "▁risk": 2906,
      "ners": 2907,
      "▁mot": 2908,
      "▁upon": 2909,
      "以下": 2910,
      "▁continue": 2911,
      "ok": 2912,
      "▁thinking": 2913,
      "ued": 2914,
      "经营": 2915,
      "▁Te": 2916,
      "▁Just": 2917,
      "▁Z": 2918,
      "文章": 2919,
      "持续": 2920,
      "▁These": 2921,
      "去年": 2922,
      "成了": 2923,
      "itted": 2924,
      "▁interesting": 2925,
      "▁fig": 2926,
      "都没有": 2927,
      "便宜": 2928,
      "▁sense": 2929,
      "▁protect": 2930,
      "还可以": 2931,
      "Ch": 2932,
      "▁accept": 2933,
      "▁among": 2934,
      "并且": 2935,
      "智能": 2936,
      "色的": 2937,
      "ches": 2938,
      "▁professional": 2939,
      "▁customers": 2940,
      "▁comput": 2941,
      "AR": 2942,
      "▁field": 2943,
      "让你": 2944,
      "什麼": 2945,
      "你了": 2946,
      "拥有": 2947,
      "▁history": 2948,
      "而是": 2949,
      "itting": 2950,
      "ned": 2951,
      "ogn": 2952,
      "台灣": 2953,
      "ding": 2954,
      "▁dam": 2955,
      "变化": 2956,
      "具体": 2957,
      "▁wish": 2958,
      "全面": 2959,
      "oring": 2960,
      "申请": 2961,
      "▁cal": 2962,
      "按照": 2963,
      "实施": 2964,
      "reet": 2965,
      "的那": 2966,
      "ensive": 2967,
      "▁comment": 2968,
      "亿元": 2969,
      "▁Bl": 2970,
      "不在": 2971,
      "▁behind": 2972,
      "▁fail": 2973,
      "ees": 2974,
      "艺术": 2975,
      "▁bar": 2976,
      "▁Pr": 2977,
      "首先": 2978,
      "▁exist": 2979,
      "体验": 2980,
      "my": 2981,
      "▁wait": 2982,
      "我国": 2983,
      "跟我": 2984,
      "你想": 2985,
      "记得": 2986,
      "▁effective": 2987,
      "ik": 2988,
      "時間": 2989,
      "表现": 2990,
      "▁opportunity": 2991,
      "▁100": 2992,
      "应用": 2993,
      "看了": 2994,
      "body": 2995,
      "参与": 2996,
      "▁ce": 2997,
      "深圳": 2998,
      "acy": 2999,
      "▁safe": 3000,
      "itten": 3001,
      "28": 3002,
      "以来": 3003,
      "进一步": 3004,
      "lished": 3005,
      "没事": 3006,
      "ored": 3007,
      "▁answer": 3008,
      "那边": 3009,
      "操作": 3010,
      "▁Ph": 3011,
      "resent": 3012,
      "▁regard": 3013,
      "▁chance": 3014,
      "inks": 3015,
      "▁required": 3016,
      "▁cult": 3017,
      "▁party": 3018,
      "▁policy": 3019,
      "21": 3020,
      "ony": 3021,
      "年轻": 3022,
      "▁American": 3023,
      "ster": 3024,
      "▁countries": 3025,
      "year": 3026,
      "做什么": 3027,
      "ring": 3028,
      "▁card": 3029,
      "ley": 3030,
      "oid": 3031,
      "ilt": 3032,
      "▁cond": 3033,
      "▁#": 3034,
      "看着": 3035,
      "cks": 3036,
      "▁knowledge": 3037,
      "ience": 3038,
      "十分": 3039,
      "▁2018": 3040,
      "2014": 3041,
      "haps": 3042,
      "这次": 3043,
      "▁property": 3044,
      "▁usually": 3045,
      "ming": 3046,
      "毕业": 3047,
      "ands": 3048,
      "www": 3049,
      "是不": 3050,
      "ograph": 3051,
      "ges": 3052,
      "▁woman": 3053,
      "是你": 3054,
      "高的": 3055,
      "hers": 3056,
      "ns": 3057,
      "▁ant": 3058,
      "▁range": 3059,
      "▁0": 3060,
      "26": 3061,
      "开展": 3062,
      "▁takes": 3063,
      "者的": 3064,
      "开心": 3065,
      "arning": 3066,
      "不起": 3067,
      "结婚": 3068,
      "duct": 3069,
      "reme": 3070,
      "ror": 3071,
      "就在": 3072,
      "▁extra": 3073,
      "%。": 3074,
      "▁method": 3075,
      "▁death": 3076,
      "▁mention": 3077,
      "oura": 3078,
      "▁details": 3079,
      "▁achie": 3080,
      "▁boy": 3081,
      "突然": 3082,
      "▁sat": 3083,
      "▁saying": 3084,
      "生命": 3085,
      "▁outside": 3086,
      "关键": 3087,
      "▁ones": 3088,
      "▁comb": 3089,
      "资产": 3090,
      "吃了": 3091,
      "▁areas": 3092,
      "▁Cent": 3093,
      "严重": 3094,
      "IT": 3095,
      "▁ess": 3096,
      "▁aud": 3097,
      "的最": 3098,
      "▁lives": 3099,
      "竞争": 3100,
      "▁hands": 3101,
      "▁vol": 3102,
      "astic": 3103,
      "整个": 3104,
      "星期": 3105,
      "心理": 3106,
      ".)": 3107,
      "并不": 3108,
      "▁running": 3109,
      "考试": 3110,
      "的吗": 3111,
      "取得": 3112,
      "程度": 3113,
      "▁anal": 3114,
      "▁thank": 3115,
      "▁surpr": 3116,
      "reci": 3117,
      "head": 3118,
      "ny": 3119,
      "培训": 3120,
      "▁added": 3121,
      "心里": 3122,
      "▁Res": 3123,
      "▁mag": 3124,
      "With": 3125,
      "他们的": 3126,
      "改变": 3127,
      "▁Intern": 3128,
      "mit": 3129,
      "aching": 3130,
      "▁door": 3131,
      "rect": 3132,
      "▁date": 3133,
      "fact": 3134,
      "▁looked": 3135,
      "▁Our": 3136,
      "urch": 3137,
      "材料": 3138,
      "不行": 3139,
      "社区": 3140,
      "谢谢": 3141,
      "ison": 3142,
      "方向": 3143,
      "是个": 3144,
      "▁App": 3145,
      "▁particip": 3146,
      "OU": 3147,
      "OR": 3148,
      "商品": 3149,
      "英国": 3150,
      "▁consum": 3151,
      "aving": 3152,
      "▁comfort": 3153,
      "▁technology": 3154,
      "▁famil": 3155,
      "▁swe": 3156,
      "rew": 3157,
      "▁definitely": 3158,
      "▁road": 3159,
      "▁choose": 3160,
      "▁mother": 3161,
      "500": 3162,
      "She": 3163,
      "都没": 3164,
      "▁tour": 3165,
      "time": 3166,
      "战略": 3167,
      "▁docu": 3168,
      "▁brand": 3169,
      "创业": 3170,
      "1)": 3171,
      "▁Don": 3172,
      "IS": 3173,
      "ED": 3174,
      "经过": 3175,
      "网上": 3176,
      "▁similar": 3177,
      "你去": 3178,
      "我有": 3179,
      "▁term": 3180,
      "规模": 3181,
      "▁ideas": 3182,
      "▁respect": 3183,
      "服務": 3184,
      "EN": 3185,
      "▁themselves": 3186,
      "ication": 3187,
      "▁changes": 3188,
      "▁Go": 3189,
      "At": 3190,
      "调查": 3191,
      "愿意": 3192,
      "▁mov": 3193,
      "▁Now": 3194,
      "▁yes": 3195,
      "来看": 3196,
      "块钱": 3197,
      "帮我": 3198,
      "omes": 3199,
      "电子": 3200,
      "▁education": 3201,
      "不同的": 3202,
      "好不好": 3203,
      "▁vi": 3204,
      "保险": 3205,
      "▁flo": 3206,
      "正式": 3207,
      "▁books": 3208,
      "号码": 3209,
      "早上": 3210,
      "慢慢": 3211,
      "▁action": 3212,
      "在家": 3213,
      "▁50": 3214,
      "fully": 3215,
      "▁management": 3216,
      "▁security": 3217,
      "▁Col": 3218,
      "irt": 3219,
      "ples": 3220,
      "也没": 3221,
      "▁goes": 3222,
      "▁assist": 3223,
      "反正": 3224,
      "ires": 3225,
      "ging": 3226,
      "怎么办": 3227,
      "然而": 3228,
      "▁events": 3229,
      "▁lost": 3230,
      "One": 3231,
      "gest": 3232,
      "empt": 3233,
      "▁position": 3234,
      "的情况": 3235,
      "▁States": 3236,
      "▁depend": 3237,
      "▁cause": 3238,
      "▁maybe": 3239,
      "27": 3240,
      "▁various": 3241,
      "▁fire": 3242,
      "mb": 3243,
      "就要": 3244,
      "▁knew": 3245,
      "▁Here": 3246,
      "▁meas": 3247,
      "重点": 3248,
      "▁Mar": 3249,
      "定的": 3250,
      "All": 3251,
      "▁general": 3252,
      "不管": 3253,
      "▁dig": 3254,
      "会有": 3255,
      "▁er": 3256,
      "中國": 3257,
      "让人": 3258,
      "长的": 3259,
      "ford": 3260,
      "▁ensure": 3261,
      "▁signific": 3262,
      "▁learning": 3263,
      "▁cool": 3264,
      "▁fast": 3265,
      "三个": 3266,
      "▁games": 3267,
      "eal": 3268,
      "上了": 3269,
      "学院": 3270,
      "力的": 3271,
      "加强": 3272,
      "back": 3273,
      "综合": 3274,
      "▁cir": 3275,
      "工资": 3276,
      "上面": 3277,
      "句话": 3278,
      "▁increase": 3279,
      "我还": 3280,
      "▁connect": 3281,
      "形成": 3282,
      "aby": 3283,
      "▁wonderful": 3284,
      "一家": 3285,
      "▁tou": 3286,
      "」,": 3287,
      "▁/": 3288,
      "▁table": 3289,
      "提出": 3290,
      "图片": 3291,
      "明显": 3292,
      "成立": 3293,
      "就算": 3294,
      "cellent": 3295,
      "▁Thank": 3296,
      "思想": 3297,
      "mm": 3298,
      "遇到": 3299,
      "下去": 3300,
      "▁hol": 3301,
      "irm": 3302,
      "行的": 3303,
      "irth": 3304,
      "▁series": 3305,
      "Our": 3306,
      "gu": 3307,
      "重要的": 3308,
      "▁colle": 3309,
      "▁interested": 3310,
      "▁provided": 3311,
      "目的": 3312,
      "che": 3313,
      "▁neg": 3314,
      "▁favorite": 3315,
      "ishing": 3316,
      "说了": 3317,
      "保障": 3318,
      "欧洲": 3319,
      "三十": 3320,
      "▁stra": 3321,
      "問題": 3322,
      "uth": 3323,
      "aur": 3324,
      "都要": 3325,
      "经历": 3326,
      "我看": 3327,
      "▁jour": 3328,
      "▁determ": 3329,
      "本来": 3330,
      "确实": 3331,
      "软件": 3332,
      "par": 3333,
      "购买": 3334,
      "▁haven": 3335,
      "制造": 3336,
      "▁attention": 3337,
      "▁port": 3338,
      "▁parents": 3339,
      "medi": 3340,
      "▁felt": 3341,
      "▁request": 3342,
      "OT": 3343,
      "abor": 3344,
      "▁recent": 3345,
      "很多人": 3346,
      "你还": 3347,
      "ises": 3348,
      "▁impact": 3349,
      "期间": 3350,
      "▁Rep": 3351,
      "angu": 3352,
      "ene": 3353,
      "的新": 3354,
      "事件": 3355,
      "▁rate": 3356,
      "音乐": 3357,
      "现场": 3358,
      "ended": 3359,
      "Well": 3360,
      "委员": 3361,
      "属于": 3362,
      "▁quickly": 3363,
      "Now": 3364,
      "最好": 3365,
      "▁regular": 3366,
      "爱你": 3367,
      "▁according": 3368,
      "??": 3369,
      "vert": 3370,
      "do": 3371,
      "特色": 3372,
      "▁wide": 3373,
      "▁Some": 3374,
      "附近": 3375,
      "▁skills": 3376,
      "▁infl": 3377,
      "你也": 3378,
      "我知道": 3379,
      "很有": 3380,
      "▁receive": 3381,
      "宝宝": 3382,
      "刚才": 3383,
      "语音": 3384,
      "最终": 3385,
      "▁instead": 3386,
      "和你": 3387,
      "▁growth": 3388,
      "▁ground": 3389,
      "resh": 3390,
      "eral": 3391,
      "enty": 3392,
      "▁z": 3393,
      "AS": 3394,
      "▁oil": 3395,
      "ules": 3396,
      "建筑": 3397,
      "等等": 3398,
      "AL": 3399,
      "▁private": 3400,
      "▁offers": 3401,
      "力量": 3402,
      "▁install": 3403,
      "实在": 3404,
      "▁speak": 3405,
      "ially": 3406,
      "▁decided": 3407,
      "Here": 3408,
      "专家": 3409,
      "▁credit": 3410,
      "▁late": 3411,
      "▁host": 3412,
      "▁certainly": 3413,
      "▁written": 3414,
      "Be": 3415,
      "英语": 3416,
      "asons": 3417,
      "工业": 3418,
      "难道": 3419,
      "▁town": 3420,
      "很大": 3421,
      "安排": 3422,
      "评价": 3423,
      "▁ill": 3424,
      "▁necessary": 3425,
      "就像": 3426,
      "▁points": 3427,
      "生意": 3428,
      "iet": 3429,
      "▁tried": 3430,
      "ude": 3431,
      "吸引": 3432,
      "▁exactly": 3433,
      "的不": 3434,
      "▁fa": 3435,
      "▁foot": 3436,
      "acebook": 3437,
      "▁guess": 3438,
      "▁Mr": 3439,
      "erc": 3440,
      "这家": 3441,
      "▁talking": 3442,
      "▁red": 3443,
      "▁black": 3444,
      "治疗": 3445,
      "过程中": 3446,
      "na": 3447,
      "意义": 3448,
      "快速": 3449,
      "oon": 3450,
      "▁marketing": 3451,
      "广州": 3452,
      "商业": 3453,
      "指出": 3454,
      "▁recogn": 3455,
      "小孩": 3456,
      "在干嘛": 3457,
      "重新": 3458,
      "ume": 3459,
      "kend": 3460,
      "有一个": 3461,
      "▁white": 3462,
      "ators": 3463,
      "▁appreci": 3464,
      "死了": 3465,
      "大多": 3466,
      "这边": 3467,
      "ublic": 3468,
      "ceed": 3469,
      "ober": 3470,
      "加入": 3471,
      "▁options": 3472,
      "!\"": 3473,
      "产生": 3474,
      "习惯": 3475,
      "大量": 3476,
      "▁Please": 3477,
      "▁bott": 3478,
      "在这里": 3479,
      "▁paper": 3480,
      "▁six": 3481,
      "▁fit": 3482,
      "的高": 3483,
      "职业": 3484,
      "▁arri": 3485,
      "下面": 3486,
      "》,": 3487,
      "▁sleep": 3488,
      "大概": 3489,
      "▁feed": 3490,
      "▁natural": 3491,
      "现代": 3492,
      "▁dest": 3493,
      "意见": 3494,
      "▁turned": 3495,
      "已經": 3496,
      "▁insp": 3497,
      "女儿": 3498,
      "▁fair": 3499,
      "人才": 3500,
      "olute": 3501,
      "▁thanks": 3502,
      "▁size": 3503,
      "▁init": 3504,
      "rodu": 3505,
      "行政": 3506,
      "免费": 3507,
      "▁significant": 3508,
      "说明": 3509,
      "sc": 3510,
      "▁political": 3511,
      "icles": 3512,
      "年来": 3513,
      "▁potential": 3514,
      "好多": 3515,
      "▁feeling": 3516,
      "的东西": 3517,
      "无论": 3518,
      "▁couldn": 3519,
      "mas": 3520,
      "▁customer": 3521,
      "Yes": 3522,
      "▁fight": 3523,
      "你看": 3524,
      "▁box": 3525,
      "▁anim": 3526,
      "保证": 3527,
      "IC": 3528,
      "▁decision": 3529,
      "会儿": 3530,
      "iddle": 3531,
      "▁text": 3532,
      "▁norm": 3533,
      "▁huge": 3534,
      "怎样": 3535,
      "Thank": 3536,
      "心情": 3537,
      "▁inside": 3538,
      "他妈": 3539,
      "▁activities": 3540,
      "2)": 3541,
      "▁X": 3542,
      "▁except": 3543,
      "阶段": 3544,
      "29": 3545,
      "有了": 3546,
      "▁Cont": 3547,
      "联合": 3548,
      "化的": 3549,
      "不错的": 3550,
      "做好": 3551,
      "计算": 3552,
      "▁listen": 3553,
      "▁popular": 3554,
      "一位": 3555,
      "▁unique": 3556,
      "长期": 3557,
      "。」": 3558,
      "▁song": 3559,
      "▁meeting": 3560,
      "我会": 3561,
      "过的": 3562,
      "每个": 3563,
      "▁held": 3564,
      "rict": 3565,
      "似乎": 3566,
      "iving": 3567,
      "▁deep": 3568,
      "aily": 3569,
      "明白": 3570,
      "▁attack": 3571,
      "verage": 3572,
      "...]": 3573,
      "体系": 3574,
      "▁shows": 3575,
      "▁character": 3576,
      "团队": 3577,
      "▁terms": 3578,
      "几乎": 3579,
      "Thanks": 3580,
      "▁His": 3581,
      "▁More": 3582,
      "▁choice": 3583,
      "ruction": 3584,
      "▁third": 3585,
      "▁Inst": 3586,
      "▁coun": 3587,
      "▁situation": 3588,
      "▁role": 3589,
      "ression": 3590,
      "一切": 3591,
      "▁stat": 3592,
      "▁eat": 3593,
      "▁received": 3594,
      "加上": 3595,
      "orry": 3596,
      "因素": 3597,
      "范围": 3598,
      "lebr": 3599,
      "▁leaders": 3600,
      "女性": 3601,
      "本书": 3602,
      "crib": 3603,
      "▁gets": 3604,
      "▁loss": 3605,
      "like": 3606,
      "▁World": 3607,
      "ball": 3608,
      "食品": 3609,
      "▁worked": 3610,
      "推动": 3611,
      "▁11": 3612,
      "就能": 3613,
      "最大的": 3614,
      "至少": 3615,
      "▁summer": 3616,
      "结构": 3617,
      "▁Su": 3618,
      "開始": 3619,
      "成绩": 3620,
      "▁recently": 3621,
      "医疗": 3622,
      "支付": 3623,
      "ressed": 3624,
      "oke": 3625,
      "▁collect": 3626,
      "阅读": 3627,
      "ffe": 3628,
      "罗斯": 3629,
      "ohn": 3630,
      "▁estab": 3631,
      "▁drive": 3632,
      "35": 3633,
      "▁medical": 3634,
      "的发展": 3635,
      "▁completely": 3636,
      "▁Car": 3637,
      "开放": 3638,
      "play": 3639,
      "▁25": 3640,
      "十二": 3641,
      "▁Am": 3642,
      "眼睛": 3643,
      "▁24": 3644,
      "员工": 3645,
      "pri": 3646,
      "医生": 3647,
      "▁giving": 3648,
      "▁higher": 3649,
      "态度": 3650,
      "人士": 3651,
      "规划": 3652,
      "▁encoura": 3653,
      "▁involved": 3654,
      "▁wouldn": 3655,
      "房子": 3656,
      "你在哪里": 3657,
      "▁sort": 3658,
      "压力": 3659,
      "▁hit": 3660,
      "好吧": 3661,
      "给他": 3662,
      "▁Me": 3663,
      "优势": 3664,
      "▁Sc": 3665,
      "▁save": 3666,
      "▁bud": 3667,
      "的工作": 3668,
      "ler": 3669,
      "pose": 3670,
      "去的": 3671,
      "現在": 3672,
      "After": 3673,
      "▁gave": 3674,
      "ope": 3675,
      "▁trust": 3676,
      "行动": 3677,
      "符合": 3678,
      "无聊": 3679,
      "▁teac": 3680,
      "時候": 3681,
      "你可以": 3682,
      "▁16": 3683,
      "带来": 3684,
      "gra": 3685,
      "能源": 3686,
      "答案": 3687,
      "民族": 3688,
      "调整": 3689,
      "▁After": 3690,
      "▁track": 3691,
      "umb": 3692,
      "▁affect": 3693,
      "▁apply": 3694,
      "▁sometimes": 3695,
      "fety": 3696,
      "我也不": 3697,
      "完了": 3698,
      "声音": 3699,
      "也会": 3700,
      "▁himself": 3701,
      "▁mass": 3702,
      "也没有": 3703,
      "女孩": 3704,
      "▁object": 3705,
      "▁clients": 3706,
      "▁treatment": 3707,
      "▁easily": 3708,
      "▁imag": 3709,
      "年前": 3710,
      "▁weekend": 3711,
      "verse": 3712,
      "面对": 3713,
      "那就": 3714,
      "一百": 3715,
      "這樣": 3716,
      "▁weight": 3717,
      "▁version": 3718,
      "minist": 3719,
      "原来": 3720,
      "▁computer": 3721,
      "总是": 3722,
      "等一下": 3723,
      "▁global": 3724,
      "任务": 3725,
      "舒服": 3726,
      "▁http": 3727,
      "▁sales": 3728,
      "▁America": 3729,
      "▁inj": 3730,
      "▁Tra": 3731,
      "▁practice": 3732,
      "▁happened": 3733,
      "▁costs": 3734,
      "▁economic": 3735,
      "val": 3736,
      "过了": 3737,
      "▁click": 3738,
      "▁prior": 3739,
      "意识": 3740,
      "▁14": 3741,
      "▁select": 3742,
      "那么多": 3743,
      "▁ability": 3744,
      "olution": 3745,
      "确定": 3746,
      "▁created": 3747,
      "▁final": 3748,
      "▁fine": 3749,
      "核心": 3750,
      "收到": 3751,
      "▁application": 3752,
      "▁engine": 3753,
      "▁bal": 3754,
      "此外": 3755,
      "▁guys": 3756,
      "很快": 3757,
      "ask": 3758,
      "▁aware": 3759,
      "快点": 3760,
      "band": 3761,
      "▁gen": 3762,
      "▁contrib": 3763,
      "obile": 3764,
      "▁York": 3765,
      "▁Fe": 3766,
      "▁veh": 3767,
      "▁national": 3768,
      "▁sn": 3769,
      "女朋友": 3770,
      "▁13": 3771,
      "▁immedi": 3772,
      "▁_": 3773,
      "程序": 3774,
      "▁playing": 3775,
      "贸易": 3776,
      "arget": 3777,
      "▁itself": 3778,
      "▁dream": 3779,
      "文件": 3780,
      "检查": 3781,
      "终于": 3782,
      "▁items": 3783,
      "办公": 3784,
      "istic": 3785,
      "▁aren": 3786,
      "▁maintain": 3787,
      "▁dead": 3788,
      ".,": 3789,
      "另一": 3790,
      "▁member": 3791,
      "▁approach": 3792,
      "即使": 3793,
      "的时间": 3794,
      "▁currently": 3795,
      "▁represent": 3796,
      "放在": 3797,
      "itch": 3798,
      "▁contract": 3799,
      "atever": 3800,
      "▁inn": 3801,
      "▁hair": 3802,
      "▁excellent": 3803,
      "还没有": 3804,
      "如今": 3805,
      "资料": 3806,
      "欢迎": 3807,
      "!!!": 3808,
      "▁performance": 3809,
      "▁Co": 3810,
      "▁fix": 3811,
      "你在干嘛": 3812,
      "▁remain": 3813,
      "呵呵": 3814,
      "结束": 3815,
      "推进": 3816,
      "通知": 3817,
      "丰富": 3818,
      "fficient": 3819,
      "外面": 3820,
      "▁Pe": 3821,
      "ached": 3822,
      "上市": 3823,
      "利益": 3824,
      "说我": 3825,
      "执行": 3826,
      "▁Pres": 3827,
      "。(": 3828,
      "Oh": 3829,
      "▁father": 3830,
      "▁features": 3831,
      "▁section": 3832,
      "▁Gr": 3833,
      "▁conv": 3834,
      "满足": 3835,
      "▁slow": 3836,
      "▁hor": 3837,
      "▁clos": 3838,
      "享受": 3839,
      "▁legal": 3840,
      "▁Af": 3841,
      "▁provides": 3842,
      "两天": 3843,
      "▁extreme": 3844,
      "必要": 3845,
      "措施": 3846,
      "▁viol": 3847,
      "▁piece": 3848,
      "▁En": 3849,
      "enced": 3850,
      "▁langu": 3851,
      "▁benefits": 3852,
      "▁ste": 3853,
      "sy": 3854,
      "▁2017": 3855,
      "leg": 3856,
      "ibly": 3857,
      "45": 3858,
      "cil": 3859,
      "而已": 3860,
      "也要": 3861,
      "▁total": 3862,
      "▁picture": 3863,
      "▁Gu": 3864,
      "▁correct": 3865,
      "▁official": 3866,
      "▁sell": 3867,
      "▁THE": 3868,
      "马上": 3869,
      "amer": 3870,
      "针对": 3871,
      "那种": 3872,
      "▁internet": 3873,
      "兄弟": 3874,
      "▁challeng": 3875,
      "▁Sy": 3876,
      "中午": 3877,
      "▁sharing": 3878,
      "anger": 3879,
      "▁message": 3880,
      "▁related": 3881,
      "结合": 3882,
      "▁trip": 3883,
      "▁comments": 3884,
      "▁projects": 3885,
      "2,": 3886,
      "that": 3887,
      "姐姐": 3888,
      "▁blood": 3889,
      "erve": 3890,
      "▁attempt": 3891,
      "▁Sec": 3892,
      "娱乐": 3893,
      "▁Google": 3894,
      "曾经": 3895,
      "▁positive": 3896,
      "199": 3897,
      "令人": 3898,
      "兴趣": 3899,
      "▁pull": 3900,
      "▁Che": 3901,
      "▁gone": 3902,
      "▁international": 3903,
      "▁ten": 3904,
      "当地": 3905,
      "▁alone": 3906,
      "现实": 3907,
      "ai": 3908,
      "不知": 3909,
      "▁199": 3910,
      "▁Of": 3911,
      "详细": 3912,
      "irit": 3913,
      "▁Serv": 3914,
      "▁cases": 3915,
      "买了": 3916,
      "不然": 3917,
      "有个": 3918,
      "▁17": 3919,
      "▁finally": 3920,
      "你不是": 3921,
      "。“": 3922,
      "▁wall": 3923,
      "状态": 3924,
      "它的": 3925,
      "最高": 3926,
      "▁announ": 3927,
      "资本": 3928,
      "▁starting": 3929,
      "绝对": 3930,
      "▁glad": 3931,
      "lt": 3932,
      "▁sun": 3933,
      "▁loved": 3934,
      "ification": 3935,
      "設計": 3936,
      "做了": 3937,
      "▁celebr": 3938,
      "▁lat": 3939,
      "▁function": 3940,
      "▁advice": 3941,
      "▁coll": 3942,
      "ables": 3943,
      "▁systems": 3944,
      "▁Tw": 3945,
      "本身": 3946,
      "▁hy": 3947,
      "公共": 3948,
      "you": 3949,
      "imum": 3950,
      "人生": 3951,
      "儿童": 3952,
      "▁designed": 3953,
      "▁absolute": 3954,
      "大利": 3955,
      "airs": 3956,
      "itc": 3957,
      "很难": 3958,
      "ze": 3959,
      "lier": 3960,
      "的重要": 3961,
      "▁note": 3962,
      "▁additional": 3963,
      "是有": 3964,
      "的啊": 3965,
      "事实": 3966,
      "都可以": 3967,
      "▁stri": 3968,
      "▁birth": 3969,
      "aughter": 3970,
      "aign": 3971,
      "aught": 3972,
      "下载": 3973,
      "路上": 3974,
      "又不": 3975,
      "充分": 3976,
      "▁opin": 3977,
      "▁users": 3978,
      "▁State": 3979,
      "▁cook": 3980,
      "rams": 3981,
      "orrow": 3982,
      "ops": 3983,
      "▁touch": 3984,
      "分别": 3985,
      "hood": 3986,
      "▁throughout": 3987,
      "erson": 3988,
      "▁1.": 3989,
      "后的": 3990,
      "稳定": 3991,
      "lex": 3992,
      "onse": 3993,
      "AC": 3994,
      "▁resources": 3995,
      "wise": 3996,
      "▁software": 3997,
      "▁skin": 3998,
      "小的": 3999,
      "最大": 4000,
      "▁conditions": 4001,
      "ama": 4002,
      "ext": 4003,
      "▁reci": 4004,
      "ounds": 4005,
      "▁obs": 4006,
      "是因为": 4007,
      "俄罗斯": 4008,
      "▁luck": 4009,
      "Not": 4010,
      "AP": 4011,
      "促进": 4012,
      "▁option": 4013,
      "ying": 4014,
      "相当": 4015,
      "卫生": 4016,
      "公司的": 4017,
      "su": 4018,
      "永远": 4019,
      "but": 4020,
      "不過": 4021,
      "宣传": 4022,
      "put": 4023,
      "▁City": 4024,
      "你会": 4025,
      "男朋友": 4026,
      "体育": 4027,
      "▁board": 4028,
      "▁guy": 4029,
      "月份": 4030,
      "看的": 4031,
      "▁deg": 4032,
      "创造": 4033,
      "▁Let": 4034,
      "itor": 4035,
      "▁truly": 4036,
      "▁doub": 4037,
      "sp": 4038,
      "所谓": 4039,
      "▁associ": 4040,
      "hold": 4041,
      "OS": 4042,
      "▁University": 4043,
      "▁Read": 4044,
      "▁spent": 4045,
      "more": 4046,
      "女生": 4047,
      "形式": 4048,
      "广告": 4049,
      "▁wants": 4050,
      "just": 4051,
      "wor": 4052,
      "事业": 4053,
      "活動": 4054,
      "一张": 4055,
      "▁mach": 4056,
      "也许": 4057,
      "▁avoid": 4058,
      "教学": 4059,
      "▁dru": 4060,
      "▁lay": 4061,
      "▁draw": 4062,
      "我很": 4063,
      "Ph": 4064,
      "▁places": 4065,
      "才是": 4066,
      "cious": 4067,
      "▁jud": 4068,
      "ING": 4069,
      "工具": 4070,
      "ox": 4071,
      "▁print": 4072,
      "▁difference": 4073,
      "▁Med": 4074,
      "没什么": 4075,
      "感到": 4076,
      "身上": 4077,
      "▁Part": 4078,
      "▁original": 4079,
      "▁eye": 4080,
      "避免": 4081,
      "▁dom": 4082,
      "izing": 4083,
      "▁film": 4084,
      "ief": 4085,
      "▁Well": 4086,
      "咖啡": 4087,
      "▁Act": 4088,
      "ciety": 4089,
      "▁photos": 4090,
      "好吃": 4091,
      "▁paid": 4092,
      "▁student": 4093,
      "ecause": 4094,
      "▁del": 4095,
      "▁bur": 4096,
      "人类": 4097,
      "▁Jan": 4098,
      ":00": 4099,
      "台湾": 4100,
      "的一个": 4101,
      "▁warm": 4102,
      "▁sche": 4103,
      "spect": 4104,
      "身份": 4105,
      "叫我": 4106,
      "▁planning": 4107,
      "▁imm": 4108,
      "韩国": 4109,
      "▁sett": 4110,
      "▁rights": 4111,
      "重大": 4112,
      "Don": 4113,
      "样子": 4114,
      "▁Day": 4115,
      "eah": 4116,
      "nam": 4117,
      "自身": 4118,
      "▁ep": 4119,
      "离开": 4120,
      "看见": 4121,
      "▁40": 4122,
      "▁rad": 4123,
      "isions": 4124,
      "▁lif": 4125,
      "zy": 4126,
      "▁2016": 4127,
      "reng": 4128,
      "感情": 4129,
      "再次": 4130,
      "▁squ": 4131,
      "ival": 4132,
      "▁@": 4133,
      "而言": 4134,
      "▁model": 4135,
      "▁Christmas": 4136,
      "▁wel": 4137,
      "▁stru": 4138,
      "证券": 4139,
      "erg": 4140,
      "▁expected": 4141,
      "▁compl": 4142,
      "如果你": 4143,
      "你啊": 4144,
      "爱情": 4145,
      "于是": 4146,
      "▁convers": 4147,
      "太多": 4148,
      "▁carry": 4149,
      "作者": 4150,
      "▁wal": 4151,
      "▁Will": 4152,
      "▁voice": 4153,
      "mon": 4154,
      "要不要": 4155,
      "▁goal": 4156,
      "明确": 4157,
      "本人": 4158,
      "▁dise": 4159,
      "epend": 4160,
      "▁Fl": 4161,
      ")、": 4162,
      "到的": 4163,
      "唯一": 4164,
      "▁useful": 4165,
      "Re": 4166,
      "▁Min": 4167,
      "妹妹": 4168,
      "▁reach": 4169,
      "作业": 4170,
      "德国": 4171,
      "把我": 4172,
      "▁Then": 4173,
      "主任": 4174,
      "▁style": 4175,
      "▁wife": 4176,
      "降低": 4177,
      "▁lots": 4178,
      "▁target": 4179,
      "减少": 4180,
      "▁bank": 4181,
      "他在": 4182,
      "下次": 4183,
      "idered": 4184,
      "▁location": 4185,
      "消费者": 4186,
      "▁code": 4187,
      "▁plans": 4188,
      "ighb": 4189,
      "对方": 4190,
      "随便": 4191,
      "▁cand": 4192,
      "ights": 4193,
      "▁began": 4194,
      "Is": 4195,
      "▁serious": 4196,
      "▁Ag": 4197,
      "ung": 4198,
      "上一": 4199,
      "yond": 4200,
      "合理": 4201,
      "anced": 4202,
      "▁dark": 4203,
      "▁variety": 4204,
      "大部分": 4205,
      "▁police": 4206,
      "和我": 4207,
      "▁daily": 4208,
      "▁China": 4209,
      "▁fear": 4210,
      "名的": 4211,
      "▁posts": 4212,
      "mp": 4213,
      "此次": 4214,
      ":「": 4215,
      "上去": 4216,
      "你知道": 4217,
      "▁emb": 4218,
      "▁hus": 4219,
      "These": 4220,
      "▁groups": 4221,
      "▁enter": 4222,
      "▁South": 4223,
      "enge": 4224,
      "有多": 4225,
      "▁prevent": 4226,
      "▁levels": 4227,
      "▁screen": 4228,
      "ule": 4229,
      "▁prin": 4230,
      "及时": 4231,
      "egr": 4232,
      "▁career": 4233,
      "lev": 4234,
      "▁Every": 4235,
      "▁baby": 4236,
      "▁Facebook": 4237,
      "▁brought": 4238,
      "。。": 4239,
      "世纪": 4240,
      "段时间": 4241,
      "esome": 4242,
      "▁apart": 4243,
      "▁detail": 4244,
      "生气": 4245,
      "Please": 4246,
      "都很": 4247,
      "▁purchase": 4248,
      "▁son": 4249,
      "每年": 4250,
      "把你": 4251,
      "▁individuals": 4252,
      "▁user": 4253,
      "iring": 4254,
      "再说": 4255,
      "atives": 4256,
      "ole": 4257,
      "ests": 4258,
      "還是": 4259,
      "自动": 4260,
      "2013": 4261,
      "▁reasons": 4262,
      "▁rent": 4263,
      "pper": 4264,
      "我没": 4265,
      "感受": 4266,
      "教师": 4267,
      "不太": 4268,
      "身边": 4269,
      "整体": 4270,
      "ructure": 4271,
      "▁campaign": 4272,
      "美國": 4273,
      "优秀": 4274,
      "▁programs": 4275,
      "苹果": 4276,
      "▁latest": 4277,
      "illing": 4278,
      "它们": 4279,
      "▁condition": 4280,
      "▁Ke": 4281,
      "注册": 4282,
      "下一": 4283,
      "▁via": 4284,
      "小心": 4285,
      "▁stock": 4286,
      "都能": 4287,
      "之外": 4288,
      "你是不是": 4289,
      "证明": 4290,
      "平均": 4291,
      "▁stories": 4292,
      "移动": 4293,
      "完善": 4294,
      "▁effort": 4295,
      "eth": 4296,
      "發展": 4297,
      "语言": 4298,
      "Sh": 4299,
      "我没有": 4300,
      "oting": 4301,
      "咨询": 4302,
      "▁pan": 4303,
      "▁lack": 4304,
      "▁hur": 4305,
      "也就是": 4306,
      "是一种": 4307,
      "帮你": 4308,
      "合同": 4309,
      "下降": 4310,
      "▁built": 4311,
      "食物": 4312,
      "iding": 4313,
      "▁highly": 4314,
      "itary": 4315,
      "有很多": 4316,
      "叫你": 4317,
      "\".": 4318,
      "cies": 4319,
      "▁seeing": 4320,
      "▁在": 4321,
      "疾病": 4322,
      "主席": 4323,
      "uses": 4324,
      "▁tit": 4325,
      "▁mis": 4326,
      "3,": 4327,
      "指导": 4328,
      "▁ut": 4329,
      "▁parts": 4330,
      "oday": 4331,
      "▁的": 4332,
      "印度": 4333,
      "▁gives": 4334,
      "nal": 4335,
      "依然": 4336,
      "▁includes": 4337,
      "iction": 4338,
      "▁circ": 4339,
      "飞机": 4340,
      "区域": 4341,
      "▁lower": 4342,
      "解释": 4343,
      "您的": 4344,
      "▁Aust": 4345,
      "▁tradition": 4346,
      "走了": 4347,
      "▁attend": 4348,
      "▁achieve": 4349,
      "▁towards": 4350,
      "▁base": 4351,
      "▁considered": 4352,
      "這些": 4353,
      "undred": 4354,
      "▁average": 4355,
      "。,": 4356,
      "▁safety": 4357,
      "不上": 4358,
      "哥哥": 4359,
      "ID": 4360,
      "▁feet": 4361,
      "▁truth": 4362,
      "想法": 4363,
      "天气": 4364,
      "相对": 4365,
      "采用": 4366,
      "itter": 4367,
      "ufact": 4368,
      "中国的": 4369,
      "更好": 4370,
      "▁easier": 4371,
      "引起": 4372,
      "地产": 4373,
      "广东": 4374,
      "▁doll": 4375,
      "最好的": 4376,
      "发展的": 4377,
      "▁healthy": 4378,
      "更新": 4379,
      "竟然": 4380,
      "unities": 4381,
      "org": 4382,
      "uary": 4383,
      "▁fresh": 4384,
      "▁prote": 4385,
      "▁color": 4386,
      "▁National": 4387,
      "▁source": 4388,
      "▁autom": 4389,
      "差不多": 4390,
      "▁Per": 4391,
      "理论": 4392,
      "▁President": 4393,
      "往往": 4394,
      "▁exerc": 4395,
      "▁interview": 4396,
      "不懂": 4397,
      "深入": 4398,
      "股份": 4399,
      "▁evidence": 4400,
      "▁poor": 4401,
      "▁introdu": 4402,
      "能不能": 4403,
      "英雄": 4404,
      "▁dog": 4405,
      "itchen": 4406,
      "▁growing": 4407,
      "▁successful": 4408,
      "▁pictures": 4409,
      "ipment": 4410,
      "设施": 4411,
      "▁solution": 4412,
      "▁offe": 4413,
      "生日": 4414,
      "家长": 4415,
      "更多的": 4416,
      "31": 4417,
      "進行": 4418,
      "▁tast": 4419,
      "▁beginning": 4420,
      "▁Cal": 4421,
      "OM": 4422,
      "ederal": 4423,
      "运营": 4424,
      "▁streng": 4425,
      "reg": 4426,
      "▁sold": 4427,
      "还不错": 4428,
      "回到": 4429,
      "中华": 4430,
      "▁ri": 4431,
      "的我": 4432,
      "各位": 4433,
      "看来": 4434,
      "▁implement": 4435,
      "尤其是": 4436,
      "▁movie": 4437,
      "那是": 4438,
      "▁response": 4439,
      "下了": 4440,
      "的方式": 4441,
      "▁copy": 4442,
      "▁:)": 4443,
      "在这": 4444,
      "说是": 4445,
      "▁sens": 4446,
      "▁types": 4447,
      "公开": 4448,
      "▁providing": 4449,
      "▁Oct": 4450,
      "美的": 4451,
      "mail": 4452,
      "主题": 4453,
      "iced": 4454,
      "▁cy": 4455,
      "▁budget": 4456,
      "▁thous": 4457,
      "▁neighb": 4458,
      "发挥": 4459,
      "担心": 4460,
      "日子": 4461,
      "▁conc": 4462,
      "▁Are": 4463,
      "委员会": 4464,
      "宝贝": 4465,
      "▁nature": 4466,
      "▁multip": 4467,
      "▁sites": 4468,
      "ese": 4469,
      "”.": 4470,
      "▁hotel": 4471,
      "发的": 4472,
      "哪儿": 4473,
      "▁file": 4474,
      "经理": 4475,
      "投入": 4476,
      "培养": 4477,
      "那我": 4478,
      "99": 4479,
      "▁perhaps": 4480,
      "买的": 4481,
      "atur": 4482,
      "▁Pol": 4483,
      "▁obv": 4484,
      "▁dep": 4485,
      "家人": 4486,
      "▁organization": 4487,
      "上午": 4488,
      "▁court": 4489,
      "Just": 4490,
      "▁Sept": 4491,
      "动力": 4492,
      "▁understanding": 4493,
      "年度": 4494,
      "年代": 4495,
      "▁North": 4496,
      "他是": 4497,
      "患者": 4498,
      "pite": 4499,
      "▁info": 4500,
      "▁husband": 4501,
      "说你": 4502,
      "毕竟": 4503,
      "期待": 4504,
      "人民币": 4505,
      "rest": 4506,
      "LL": 4507,
      "Hi": 4508,
      "改善": 4509,
      "更是": 4510,
      "公布": 4511,
      "pril": 4512,
      "▁knows": 4513,
      "▁John": 4514,
      "书记": 4515,
      "arr": 4516,
      "点了": 4517,
      "不住": 4518,
      "▁helps": 4519,
      "▁image": 4520,
      "▁Why": 4521,
      "角度": 4522,
      "口味": 4523,
      "▁download": 4524,
      "af": 4525,
      "uly": 4526,
      "aged": 4527,
      "▁changed": 4528,
      "▁purpose": 4529,
      "▁physical": 4530,
      "独立": 4531,
      "做到": 4532,
      "atform": 4533,
      "▁trou": 4534,
      "▁peace": 4535,
      "公里": 4536,
      "▁2.": 4537,
      "群众": 4538,
      "▁investig": 4539,
      "▁respond": 4540,
      "▁document": 4541,
      "▁prices": 4542,
      "变得": 4543,
      "▁behav": 4544,
      "ET": 4545,
      "right": 4546,
      "rel": 4547,
      "ively": 4548,
      "▁directly": 4549,
      "▁fully": 4550,
      "▁Any": 4551,
      "cember": 4552,
      "早就": 4553,
      "atory": 4554,
      "▁tools": 4555,
      "-0": 4556,
      "服务员": 4557,
      "IP": 4558,
      "法院": 4559,
      "bit": 4560,
      "装修": 4561,
      "usion": 4562,
      "▁emot": 4563,
      "▁forget": 4564,
      "▁moving": 4565,
      "Why": 4566,
      "的朋友": 4567,
      "怎么不": 4568,
      "机器": 4569,
      "▁nearly": 4570,
      "▁rev": 4571,
      "hel": 4572,
      "几年": 4573,
      "满意": 4574,
      "尽管": 4575,
      "EC": 4576,
      "▁ur": 4577,
      "nes": 4578,
      "arter": 4579,
      "协议": 4580,
      "▁cross": 4581,
      "▁limited": 4582,
      "300": 4583,
      "同事": 4584,
      "覺得": 4585,
      "▁patients": 4586,
      "官方": 4587,
      "费用": 4588,
      "▁separ": 4589,
      "仍然": 4590,
      "错了": 4591,
      "▁investment": 4592,
      "出口": 4593,
      "▁waiting": 4594,
      "ux": 4595,
      "别的": 4596,
      "▁mix": 4597,
      "cription": 4598,
      "▁arr": 4599,
      "百度": 4600,
      "相比": 4601,
      "▁fan": 4602,
      "36": 4603,
      "▁fant": 4604,
      "inary": 4605,
      "监管": 4606,
      "教授": 4607,
      "▁Dep": 4608,
      "股票": 4609,
      "▁advant": 4610,
      "那样": 4611,
      "我了": 4612,
      "▁cold": 4613,
      "人在": 4614,
      "off": 4615,
      "ground": 4616,
      "▁wrote": 4617,
      "▁tips": 4618,
      "▁businesses": 4619,
      "▁restaur": 4620,
      "真实": 4621,
      "这么多": 4622,
      "居然": 4623,
      "▁progress": 4624,
      "▁sil": 4625,
      "打字": 4626,
      "apt": 4627,
      "例如": 4628,
      "感谢": 4629,
      "vent": 4630,
      "▁2015": 4631,
      "▁March": 4632,
      "印象": 4633,
      "▁AN": 4634,
      "▁included": 4635,
      "oming": 4636,
      "▁became": 4637,
      "▁UK": 4638,
      "▁Ab": 4639,
      "我家": 4640,
      "產品": 4641,
      "▁TV": 4642,
      "认真": 4643,
      "不足": 4644,
      "就行": 4645,
      "▁vict": 4646,
      "▁cell": 4647,
      "并没有": 4648,
      "打算": 4649,
      "▁ball": 4650,
      "叫什么": 4651,
      "同样": 4652,
      "how": 4653,
      "▁benefit": 4654,
      "可能是": 4655,
      "▁language": 4656,
      "▁modern": 4657,
      "早点": 4658,
      "▁House": 4659,
      "▁dro": 4660,
      "▁previous": 4661,
      "▁ahead": 4662,
      "▁expert": 4663,
      "▁threat": 4664,
      "▁join": 4665,
      "型的": 4666,
      "inner": 4667,
      "▁hosp": 4668,
      "就有": 4669,
      "▁By": 4670,
      "pre": 4671,
      "ivil": 4672,
      "▁lik": 4673,
      "▁helpful": 4674,
      "的感觉": 4675,
      "▁players": 4676,
      "▁standard": 4677,
      "antly": 4678,
      "3)": 4679,
      "itution": 4680,
      "▁topic": 4681,
      "ulations": 4682,
      "▁bag": 4683,
      "五十": 4684,
      "方面的": 4685,
      "▁basis": 4686,
      "icated": 4687,
      "记录": 4688,
      "告诉我": 4689,
      "▁prim": 4690,
      "反应": 4691,
      "ovember": 4692,
      "正确": 4693,
      "比例": 4694,
      "face": 4695,
      "▁adult": 4696,
      "董事": 4697,
      "要是": 4698,
      "▁employees": 4699,
      "讨论": 4700,
      "▁notice": 4701,
      "▁qual": 4702,
      "based": 4703,
      "arden": 4704,
      "▁families": 4705,
      "不好意思": 4706,
      "▁speed": 4707,
      "▁x": 4708,
      "ivity": 4709,
      "一名": 4710,
      "人口": 4711,
      "▁round": 4712,
      "Some": 4713,
      "oll": 4714,
      "土地": 4715,
      "变成": 4716,
      "青年": 4717,
      "▁particularly": 4718,
      "去哪里": 4719,
      "一个月": 4720,
      "大会": 4721,
      "▁demand": 4722,
      "ctions": 4723,
      "真的是": 4724,
      "rit": 4725,
      "▁appropri": 4726,
      "▁production": 4727,
      "雖然": 4728,
      "有哪些": 4729,
      "▁June": 4730,
      "▁tend": 4731,
      "Your": 4732,
      "▁happens": 4733,
      "▁Canad": 4734,
      "思考": 4735,
      "出来的": 4736,
      "▁satis": 4737,
      "打造": 4738,
      "▁opportunities": 4739,
      "居民": 4740,
      "▁pleas": 4741,
      "▁Even": 4742,
      "cast": 4743,
      "让他": 4744,
      "生物": 4745,
      "▁subst": 4746,
      "▁hundred": 4747,
      "1、": 4748,
      "▁exec": 4749,
      "等你": 4750,
      "可能会": 4751,
      "ha": 4752,
      "▁rules": 4753,
      "imately": 4754,
      "高兴": 4755,
      "lled": 4756,
      "idents": 4757,
      "oms": 4758,
      "起床": 4759,
      "也在": 4760,
      "▁ded": 4761,
      "采取": 4762,
      "的生活": 4763,
      "▁beyond": 4764,
      "地址": 4765,
      "▁whatever": 4766,
      "▁steps": 4767,
      "▁pen": 4768,
      "While": 4769,
      "▁thoughts": 4770,
      "▁network": 4771,
      "ky": 4772,
      "数量": 4773,
      "有所": 4774,
      "听到": 4775,
      "双方": 4776,
      "▁green": 4777,
      "垃圾": 4778,
      "挑战": 4779,
      "onst": 4780,
      "▁influ": 4781,
      "▁rout": 4782,
      "▁Comp": 4783,
      "进去": 4784,
      "aging": 4785,
      "背景": 4786,
      "▁creating": 4787,
      "round": 4788,
      "Cl": 4789,
      "▁spot": 4790,
      "成员": 4791,
      "▁learned": 4792,
      "88": 4793,
      "▁path": 4794,
      "Ex": 4795,
      "▁div": 4796,
      "▁accom": 4797,
      "▁manufact": 4798,
      "unately": 4799,
      "▁honest": 4800,
      "▁refer": 4801,
      "看一下": 4802,
      "▁administ": 4803,
      "▁floor": 4804,
      "ades": 4805,
      "▁flow": 4806,
      "▁release": 4807,
      "arily": 4808,
      "▁heav": 4809,
      "▁concept": 4810,
      "大了": 4811,
      "▁tom": 4812,
      "打开": 4813,
      "▁rates": 4814,
      "▁although": 4815,
      "US": 4816,
      "总统": 4817,
      "inc": 4818,
      "EO": 4819,
      "课程": 4820,
      "發現": 4821,
      "▁depart": 4822,
      "本次": 4823,
      "你又": 4824,
      "mission": 4825,
      "我好": 4826,
      "oph": 4827,
      "▁trade": 4828,
      "收益": 4829,
      "iff": 4830,
      "AM": 4831,
      "我和": 4832,
      "▁straight": 4833,
      "理念": 4834,
      "adem": 4835,
      "▁While": 4836,
      "▁economy": 4837,
      "ological": 4838,
      "贷款": 4839,
      "还能": 4840,
      "▁figure": 4841,
      "升级": 4842,
      "▁attract": 4843,
      "估计": 4844,
      "▁located": 4845,
      "半年": 4846,
      "四十": 4847,
      "不再": 4848,
      "▁tur": 4849,
      "工作的": 4850,
      "追求": 4851,
      "▁requirements": 4852,
      "▁middle": 4853,
      "我又": 4854,
      "isc": 4855,
      "操你妈": 4856,
      "件事": 4857,
      "这个问题": 4858,
      "▁allows": 4859,
      "pm": 4860,
      "▁goals": 4861,
      "▁Count": 4862,
      "困难": 4863,
      "▁platform": 4864,
      "机制": 4865,
      "▁camer": 4866,
      "生态": 4867,
      "▁English": 4868,
      "▁Par": 4869,
      "▁April": 4870,
      "推出": 4871,
      "75": 4872,
      "不去": 4873,
      "▁mid": 4874,
      "eter": 4875,
      "▁relig": 4876,
      "▁Health": 4877,
      "▁cat": 4878,
      "▁seemed": 4879,
      "hib": 4880,
      "通常": 4881,
      "mitted": 4882,
      "▁Ob": 4883,
      "▁Brit": 4884,
      "iny": 4885,
      "▁aim": 4886,
      "▁integr": 4887,
      "位于": 4888,
      "▁Qu": 4889,
      "▁December": 4890,
      "▁worry": 4891,
      "就业": 4892,
      "iar": 4893,
      "投资者": 4894,
      "▁Off": 4895,
      "最新": 4896,
      "或是": 4897,
      "数字": 4898,
      "制作": 4899,
      "overed": 4900,
      "▁charge": 4901,
      "成长": 4902,
      "sequ": 4903,
      "有时候": 4904,
      "▁£": 4905,
      "评论": 4906,
      "并不是": 4907,
      "▁mist": 4908,
      "▁Afric": 4909,
      "人都": 4910,
      "ategy": 4911,
      "多少钱": 4912,
      "在我": 4913,
      "意味": 4914,
      "idge": 4915,
      "▁School": 4916,
      "▁allowed": 4917,
      "一份": 4918,
      "▁Des": 4919,
      "微博": 4920,
      "▁weather": 4921,
      "itable": 4922,
      "期的": 4923,
      "所有的": 4924,
      "▁consult": 4925,
      "平时": 4926,
      "▁college": 4927,
      "集中": 4928,
      "Pro": 4929,
      "aves": 4930,
      "来源": 4931,
      "▁September": 4932,
      "训练": 4933,
      "也就": 4934,
      "▁challenge": 4935,
      "文字": 4936,
      "▁remind": 4937,
      "▁extremely": 4938,
      "reed": 4939,
      "▁equipment": 4940,
      "统计": 4941,
      "PS": 4942,
      "比較": 4943,
      "限制": 4944,
      "类似": 4945,
      "带着": 4946,
      "sec": 4947,
      "▁lic": 4948,
      "▁lab": 4949,
      "▁Good": 4950,
      "其實": 4951,
      "▁kept": 4952,
      "▁Aug": 4953,
      "读书": 4954,
      "▁Bo": 4955,
      "小学": 4956,
      "一路": 4957,
      "vant": 4958,
      "麻烦": 4959,
      "▁complex": 4960,
      "不敢": 4961,
      "▁meant": 4962,
      "旅行": 4963,
      "特殊": 4964,
      "自我": 4965,
      "的你": 4966,
      "attle": 4967,
      "从来": 4968,
      "▁helped": 4969,
      "▁prefer": 4970,
      "▁absolutely": 4971,
      "▁afford": 4972,
      "面积": 4973,
      "esus": 4974,
      "▁earn": 4975,
      "with": 4976,
      "action": 4977,
      "智慧": 4978,
      "▁sto": 4979,
      "▁occur": 4980,
      "母亲": 4981,
      "少年": 4982,
      "那天": 4983,
      "▁explain": 4984,
      "ysis": 4985,
      "▁meaning": 4986,
      "mar": 4987,
      "new": 4988,
      "vey": 4989,
      "rs": 4990,
      "▁subs": 4991,
      "ension": 4992,
      "▁states": 4993,
      "▁November": 4994,
      "aper": 4995,
      "我怎么": 4996,
      "主动": 4997,
      "▁normal": 4998,
      "▁awesome": 4999,
      "应该是": 5000,
      "距离": 5001,
      "aches": 5002,
      "农村": 5003,
      "▁describ": 5004,
      "不够": 5005,
      "▁photo": 5006,
      "实验": 5007,
      "举行": 5008,
      "▁hous": 5009,
      "2、": 5010,
      "ek": 5011,
      "▁Friday": 5012,
      "▁October": 5013,
      "概念": 5014,
      "word": 5015,
      "利润": 5016,
      "一条": 5017,
      "现象": 5018,
      "特别是": 5019,
      "是谁": 5020,
      "▁Gra": 5021,
      "▁stress": 5022,
      "▁strateg": 5023,
      "term": 5024,
      "oul": 5025,
      "▁kitchen": 5026,
      "▁income": 5027,
      "▁contain": 5028,
      "宣布": 5029,
      "▁Reg": 5030,
      "三四": 5031,
      "▁immediately": 5032,
      "▁mobile": 5033,
      "▁girls": 5034,
      "法国": 5035,
      "起來": 5036,
      "你家": 5037,
      "还会": 5038,
      "▁increasing": 5039,
      "▁leading": 5040,
      "ana": 5041,
      "女的": 5042,
      "▁earlier": 5043,
      "▁numbers": 5044,
      "趋势": 5045,
      "▁sweet": 5046,
      "▁pred": 5047,
      "几点": 5048,
      "iment": 5049,
      "实践": 5050,
      "apan": 5051,
      "itation": 5052,
      "用于": 5053,
      "what": 5054,
      "房间": 5055,
      "▁strugg": 5056,
      "三年": 5057,
      "▁altern": 5058,
      "▁Sund": 5059,
      "▁sounds": 5060,
      "▁lad": 5061,
      "85": 5062,
      "▁tick": 5063,
      "理由": 5064,
      "很喜欢": 5065,
      "▁commer": 5066,
      "unk": 5067,
      "uel": 5068,
      "▁July": 5069,
      "角色": 5070,
      "▁billion": 5071,
      "▁load": 5072,
      "规范": 5073,
      "文明": 5074,
      "▁obtain": 5075,
      "▁grand": 5076,
      "▁breat": 5077,
      "▁daughter": 5078,
      "▁helping": 5079,
      "算是": 5080,
      "▁January": 5081,
      "货币": 5082,
      "▁2014": 5083,
      "地的": 5084,
      "選擇": 5085,
      "orge": 5086,
      "▁capital": 5087,
      "供应": 5088,
      "▁organiz": 5089,
      "下雨": 5090,
      "▁disapp": 5091,
      "沟通": 5092,
      "信用": 5093,
      "▁digital": 5094,
      "▁Germ": 5095,
      "做出": 5096,
      "sing": 5097,
      "▁deliver": 5098,
      "icro": 5099,
      "网友": 5100,
      "的情": 5101,
      "usiness": 5102,
      "▁gift": 5103,
      "▁enjoyed": 5104,
      "▁finding": 5105,
      "son": 5106,
      "▁clot": 5107,
      "▁fat": 5108,
      "测试": 5109,
      "▁suff": 5110,
      "▁played": 5111,
      "▁Most": 5112,
      "监督": 5113,
      "一样的": 5114,
      "▁basic": 5115,
      "▁force": 5116,
      "十八": 5117,
      "市場": 5118,
      "英文": 5119,
      "▁effects": 5120,
      "▁pray": 5121,
      "▁aff": 5122,
      "高中": 5123,
      "年龄": 5124,
      "▁regist": 5125,
      "ocr": 5126,
      "▁doubt": 5127,
      "超级": 5128,
      "▁comfortable": 5129,
      "▁multiple": 5130,
      "涉及": 5131,
      "OL": 5132,
      "▁activity": 5133,
      "▁former": 5134,
      "▁brother": 5135,
      "▁bi": 5136,
      "▁willing": 5137,
      "睡觉了": 5138,
      "▁Was": 5139,
      "▁incred": 5140,
      "伙伴": 5141,
      "▁reve": 5142,
      "面临": 5143,
      "喜歡": 5144,
      "▁jobs": 5145,
      "▁scient": 5146,
      "财政": 5147,
      "近平": 5148,
      "個人": 5149,
      "▁statement": 5150,
      "▁wed": 5151,
      "的心": 5152,
      "▁science": 5153,
      "▁opinion": 5154,
      "itiz": 5155,
      "优惠": 5156,
      "农业": 5157,
      "很少": 5158,
      "很好的": 5159,
      "你自己": 5160,
      "▁schools": 5161,
      "原则": 5162,
      "▁spirit": 5163,
      "▁polit": 5164,
      "▁president": 5165,
      "当前": 5166,
      "掌握": 5167,
      "▁club": 5168,
      "sych": 5169,
      "▁consist": 5170,
      "企業": 5171,
      "ino": 5172,
      "风格": 5173,
      "日常": 5174,
      "▁lose": 5175,
      "进行了": 5176,
      "亲爱的": 5177,
      "厉害": 5178,
      "父亲": 5179,
      "▁partners": 5180,
      "▁Her": 5181,
      "说什么": 5182,
      "\",": 5183,
      "▁shot": 5184,
      "rupt": 5185,
      "▁broad": 5186,
      "fl": 5187,
      "rences": 5188,
      "重庆": 5189,
      "地位": 5190,
      "玩家": 5191,
      "协会": 5192,
      "inally": 5193,
      "总体": 5194,
      "成為": 5195,
      "▁watching": 5196,
      "Let": 5197,
      "不着": 5198,
      "岁的": 5199,
      "▁match": 5200,
      "提醒": 5201,
      "▁Great": 5202,
      "没人": 5203,
      "同意": 5204,
      "▁European": 5205,
      "▁cash": 5206,
      "▁display": 5207,
      "▁reported": 5208,
      "ague": 5209,
      "一樣": 5210,
      "民主": 5211,
      "不如": 5212,
      "连续": 5213,
      "▁wood": 5214,
      "▁stage": 5215,
      ":30": 5216,
      "▁corpor": 5217,
      "▁capt": 5218,
      "▁我": 5219,
      "▁nation": 5220,
      "应当": 5221,
      "第四": 5222,
      "▁Stud": 5223,
      "▁published": 5224,
      "也不是": 5225,
      "itude": 5226,
      "▁damage": 5227,
      "▁innov": 5228,
      "kay": 5229,
      "近日": 5230,
      "到时候": 5231,
      "从而": 5232,
      "ittee": 5233,
      "▁smart": 5234,
      "提前": 5235,
      "▁Ro": 5236,
      "▁shop": 5237,
      "▁independ": 5238,
      "突破": 5239,
      "friend": 5240,
      "▁military": 5241,
      "▁gradu": 5242,
      "ications": 5243,
      "▁society": 5244,
      "二零": 5245,
      "▁Bar": 5246,
      "▁mentioned": 5247,
      "驾驶": 5248,
      "▁owners": 5249,
      "跟他": 5250,
      "▁Austral": 5251,
      "之後": 5252,
      "▁reality": 5253,
      "▁danger": 5254,
      "统一": 5255,
      "▁appreciate": 5256,
      "arked": 5257,
      "dom": 5258,
      "▁reduce": 5259,
      "就好": 5260,
      "▁nut": 5261,
      "在线": 5262,
      "▁released": 5263,
      "ened": 5264,
      "▁::": 5265,
      "死亡": 5266,
      "▁60": 5267,
      "▁[...]": 5268,
      "落实": 5269,
      "arant": 5270,
      "▁liter": 5271,
      "▁advert": 5272,
      "制定": 5273,
      "▁solutions": 5274,
      "▁moved": 5275,
      "▁Sm": 5276,
      "内的": 5277,
      "技能": 5278,
      "效率": 5279,
      "不可以": 5280,
      "ccording": 5281,
      "机关": 5282,
      "▁guide": 5283,
      "问你": 5284,
      "38": 5285,
      "▁fram": 5286,
      "真的很": 5287,
      "▁client": 5288,
      "包装": 5289,
      "▁firm": 5290,
      "amed": 5291,
      "▁bath": 5292,
      "▁appropriate": 5293,
      "▁War": 5294,
      "icking": 5295,
      "應該": 5296,
      "otes": 5297,
      "▁disease": 5298,
      "▁conduct": 5299,
      "▁excited": 5300,
      "想你": 5301,
      "▁prop": 5302,
      "▁aspect": 5303,
      "▁Russ": 5304,
      "▁doctor": 5305,
      "举办": 5306,
      "▁greater": 5307,
      "▁1,": 5308,
      "▁center": 5309,
      "aturday": 5310,
      "展示": 5311,
      "lements": 5312,
      "之间的": 5313,
      "今晚": 5314,
      "▁sale": 5315,
      "▁culture": 5316,
      "节目": 5317,
      "gar": 5318,
      "营销": 5319,
      "跟你说": 5320,
      "傻逼": 5321,
      "▁materials": 5322,
      "Every": 5323,
      "▁collection": 5324,
      "孩子的": 5325,
      "▁coffe": 5326,
      "▁Dr": 5327,
      "多个": 5328,
      "▁surv": 5329,
      "1-": 5330,
      "▁passed": 5331,
      "大多数": 5332,
      "▁West": 5333,
      "成果": 5334,
      "玩的": 5335,
      "至于": 5336,
      "▁occas": 5337,
      "▁log": 5338,
      "▁pressure": 5339,
      "▁proced": 5340,
      "▁brain": 5341,
      "agn": 5342,
      "▁serve": 5343,
      "南京": 5344,
      "uted": 5345,
      "▁vehicle": 5346,
      "▁From": 5347,
      "**": 5348,
      "上次": 5349,
      "预计": 5350,
      "点的": 5351,
      "artment": 5352,
      "which": 5353,
      "ault": 5354,
      "确保": 5355,
      "▁gas": 5356,
      "太阳": 5357,
      "▁princi": 5358,
      "還有": 5359,
      "ales": 5360,
      "rast": 5361,
      "▁powerful": 5362,
      "▁welcome": 5363,
      "输入": 5364,
      "▁assess": 5365,
      "icate": 5366,
      "▁August": 5367,
      "key": 5368,
      "完整": 5369,
      "▁holiday": 5370,
      "▁church": 5371,
      "复杂": 5372,
      "onday": 5373,
      "动物": 5374,
      "icks": 5375,
      "▁experienced": 5376,
      "▁strategy": 5377,
      "34": 5378,
      "ube": 5379,
      "处于": 5380,
      "----------------": 5381,
      "▁mount": 5382,
      "▁Ge": 5383,
      "▁images": 5384,
      "Un": 5385,
      "ses": 5386,
      "▁offered": 5387,
      "什么的": 5388,
      "也能": 5389,
      "说不": 5390,
      "成熟": 5391,
      "强调": 5392,
      "面前": 5393,
      "▁Sunday": 5394,
      "▁efforts": 5395,
      "▁regarding": 5396,
      "▁argu": 5397,
      "社會": 5398,
      "的原因": 5399,
      "道路": 5400,
      "▁letter": 5401,
      "数学": 5402,
      "▁Get": 5403,
      "65": 5404,
      "肚子": 5405,
      "表达": 5406,
      "中文": 5407,
      "合适": 5408,
      "亿美元": 5409,
      "了啊": 5410,
      "ira": 5411,
      "主要是": 5412,
      "lying": 5413,
      "▁responsible": 5414,
      "▁blogg": 5415,
      "using": 5416,
      "我爱你": 5417,
      "找你": 5418,
      "球队": 5419,
      "系統": 5420,
      "十五": 5421,
      "htt": 5422,
      "▁block": 5423,
      "▁posted": 5424,
      "VE": 5425,
      "我不知道": 5426,
      "▁keeping": 5427,
      "▁Japan": 5428,
      "▁relax": 5429,
      "iven": 5430,
      "9,": 5431,
      "▁glass": 5432,
      "▁unless": 5433,
      "▁Internet": 5434,
      "▁fol": 5435,
      "我一": 5436,
      "▁miles": 5437,
      "出版": 5438,
      "熟悉": 5439,
      "▁plenty": 5440,
      "▁ran": 5441,
      "形象": 5442,
      "放弃": 5443,
      "▁lovely": 5444,
      "既然": 5445,
      "rief": 5446,
      "▁coffee": 5447,
      "▁shown": 5448,
      "▁evening": 5449,
      "Any": 5450,
      "▁Also": 5451,
      "▁Trump": 5452,
      "▁setting": 5453,
      "天的": 5454,
      "用了": 5455,
      "▁gain": 5456,
      "对象": 5457,
      "▁whose": 5458,
      "▁sad": 5459,
      "公安": 5460,
      "错误": 5461,
      "迅速": 5462,
      "▁essential": 5463,
      "▁race": 5464,
      "她们": 5465,
      "▁mine": 5466,
      "formation": 5467,
      "▁prem": 5468,
      "有着": 5469,
      "干净": 5470,
      "是啊": 5471,
      "▁Have": 5472,
      "imin": 5473,
      "▁Jesus": 5474,
      "▁decide": 5475,
      "辛苦": 5476,
      "ously": 5477,
      "现在的": 5478,
      "▁pages": 5479,
      "set": 5480,
      "神经": 5481,
      "▁defe": 5482,
      "运行": 5483,
      "今日": 5484,
      "▁drop": 5485,
      "上来": 5486,
      "▁driving": 5487,
      "▁Many": 5488,
      "资格": 5489,
      "ev": 5490,
      "▁developed": 5491,
      "习近平": 5492,
      "公众": 5493,
      "▁bottom": 5494,
      "浙江": 5495,
      "一旦": 5496,
      "▁dress": 5497,
      "▁appoint": 5498,
      "▁ton": 5499,
      "放假": 5500,
      "两个人": 5501,
      "▁acqu": 5502,
      "ening": 5503,
      "老人": 5504,
      "▁train": 5505,
      "▁Bra": 5506,
      "iles": 5507,
      "change": 5508,
      "商务": 5509,
      "公园": 5510,
      "▁spending": 5511,
      "内部": 5512,
      "干部": 5513,
      "earch": 5514,
      "美丽": 5515,
      "同時": 5516,
      "ma": 5517,
      "自行": 5518,
      "澳门": 5519,
      "rate": 5520,
      "▁ign": 5521,
      "37": 5522,
      "ties": 5523,
      "▁Spe": 5524,
      "▁plant": 5525,
      "研发": 5526,
      "▁device": 5527,
      "好看": 5528,
      "设置": 5529,
      "2012": 5530,
      "重视": 5531,
      "▁asking": 5532,
      "直到": 5533,
      "▁totally": 5534,
      "▁Cour": 5535,
      "经典": 5536,
      "牛肉": 5537,
      "的主": 5538,
      "好啊": 5539,
      "姑娘": 5540,
      "学会": 5541,
      "理想": 5542,
      "ris": 5543,
      "▁older": 5544,
      "omen": 5545,
      "▁ord": 5546,
      "了个": 5547,
      "一边": 5548,
      "▁faith": 5549,
      "而不是": 5550,
      "ded": 5551,
      "ondon": 5552,
      "严格": 5553,
      "或许": 5554,
      "平方": 5555,
      "▁forg": 5556,
      "▁King": 5557,
      "▁commit": 5558,
      "问答": 5559,
      "▁Feb": 5560,
      "Can": 5561,
      "▁led": 5562,
      "dule": 5563,
      "犯罪": 5564,
      "▁pool": 5565,
      "force": 5566,
      "我喜欢": 5567,
      "hest": 5568,
      "fast": 5569,
      "吃完": 5570,
      "▁advantage": 5571,
      "污染": 5572,
      "▁OF": 5573,
      "By": 5574,
      "▁gold": 5575,
      "48": 5576,
      "▁vac": 5577,
      "忘记": 5578,
      "However": 5579,
      "▁frequ": 5580,
      "▁friendly": 5581,
      "▁busy": 5582,
      "论坛": 5583,
      "▁shared": 5584,
      "▁gun": 5585,
      "▁decl": 5586,
      "terday": 5587,
      "▁finished": 5588,
      "战争": 5589,
      "一二": 5590,
      "▁repe": 5591,
      "在那里": 5592,
      "搭配": 5593,
      "cript": 5594,
      "▁sorry": 5595,
      "高度": 5596,
      "、“": 5597,
      "航空": 5598,
      "▁TO": 5599,
      "▁spread": 5600,
      "杭州": 5601,
      "▁smo": 5602,
      "旁边": 5603,
      "维护": 5604,
      "配合": 5605,
      "排名": 5606,
      "anging": 5607,
      "▁kill": 5608,
      "iling": 5609,
      "board": 5610,
      "▁heat": 5611,
      "▁feature": 5612,
      "▁payment": 5613,
      "▁creative": 5614,
      "2000": 5615,
      "识别": 5616,
      "▁sust": 5617,
      "oices": 5618,
      "order": 5619,
      "coming": 5620,
      "报名": 5621,
      "enn": 5622,
      "看起来": 5623,
      "acc": 5624,
      "encies": 5625,
      "▁cancer": 5626,
      "状况": 5627,
      "四川": 5628,
      "▁gar": 5629,
      "anc": 5630,
      "▁manage": 5631,
      "版本": 5632,
      "lied": 5633,
      "植物": 5634,
      "▁commercial": 5635,
      "即可": 5636,
      "相關": 5637,
      "▁dinner": 5638,
      "Phone": 5639,
      "类的": 5640,
      "▁YOU": 5641,
      "asc": 5642,
      "大學": 5643,
      "▁foreign": 5644,
      "房地产": 5645,
      "oted": 5646,
      "▁clearly": 5647,
      "▁journey": 5648,
      "▁candid": 5649,
      "ashion": 5650,
      "▁earth": 5651,
      "来到": 5652,
      "iam": 5653,
      "你能": 5654,
      "▁rock": 5655,
      "alu": 5656,
      "▁active": 5657,
      "将会": 5658,
      "osing": 5659,
      "iant": 5660,
      "▁Saturday": 5661,
      "):": 5662,
      "ken": 5663,
      "▁Dis": 5664,
      "世界上": 5665,
      "來的": 5666,
      "意味着": 5667,
      "aks": 5668,
      "▁catch": 5669,
      "▁pet": 5670,
      "▁bought": 5671,
      "資料": 5672,
      "▁died": 5673,
      "39": 5674,
      "千万": 5675,
      "AD": 5676,
      "zz": 5677,
      "▁patient": 5678,
      "bed": 5679,
      "贡献": 5680,
      "▁dry": 5681,
      "了一下": 5682,
      "▁putting": 5683,
      "人物": 5684,
      "▁civil": 5685,
      "▁🙂": 5686,
      "上网": 5687,
      "不會": 5688,
      "将在": 5689,
      "▁slight": 5690,
      "十年": 5691,
      "▁debt": 5692,
      "55": 5693,
      "國際": 5694,
      "我不是": 5695,
      "修改": 5696,
      "市民": 5697,
      "hern": 5698,
      "▁Coun": 5699,
      "▁workers": 5700,
      "▁transport": 5701,
      "▁volunt": 5702,
      "要不": 5703,
      "▁band": 5704,
      "ili": 5705,
      "▁Art": 5706,
      "▁degree": 5707,
      "log": 5708,
      "rely": 5709,
      "▁traffic": 5710,
      "▁wear": 5711,
      "小编": 5712,
      "aul": 5713,
      "▁wat": 5714,
      "两年": 5715,
      "▁reports": 5716,
      "uk": 5717,
      "▁Har": 5718,
      "▁Cons": 5719,
      "ancy": 5720,
      "▁Yes": 5721,
      "▁actual": 5722,
      "uild": 5723,
      "跟我说": 5724,
      "成的": 5725,
      "▁cru": 5726,
      "▁cove": 5727,
      "Then": 5728,
      "▁instruct": 5729,
      "男子": 5730,
      "ruit": 5731,
      "承担": 5732,
      "喝酒": 5733,
      "▁ult": 5734,
      "▁Govern": 5735,
      "aint": 5736,
      "想象": 5737,
      "海外": 5738,
      "▁fem": 5739,
      "可惜": 5740,
      "Com": 5741,
      "七八": 5742,
      "hol": 5743,
      "不可能": 5744,
      "融资": 5745,
      "良好的": 5746,
      "cribe": 5747,
      "vest": 5748,
      "lim": 5749,
      "▁Mc": 5750,
      "刺激": 5751,
      "fortunately": 5752,
      "门口": 5753,
      "的那个": 5754,
      "掉了": 5755,
      "▁realize": 5756,
      "▁fantastic": 5757,
      "的前": 5758,
      "▁arch": 5759,
      "▁minute": 5760,
      "▁articles": 5761,
      "手段": 5762,
      "遊戲": 5763,
      "▁population": 5764,
      "美食": 5765,
      "后面": 5766,
      "DP": 5767,
      "党的": 5768,
      "环保": 5769,
      "許多": 5770,
      "在中国": 5771,
      "▁supply": 5772,
      "▁bill": 5773,
      "▁ban": 5774,
      "▁links": 5775,
      "让我们": 5776,
      "ronic": 5777,
      "上升": 5778,
      "▁window": 5779,
      "劳动": 5780,
      "发表": 5781,
      "配置": 5782,
      "明星": 5783,
      "弟弟": 5784,
      "▁traditional": 5785,
      "▁mat": 5786,
      "▁audience": 5787,
      "▁First": 5788,
      "召开": 5789,
      "well": 5790,
      "我自己": 5791,
      "怎么啦": 5792,
      "▁generally": 5793,
      "▁reflect": 5794,
      "!)": 5795,
      "▁rid": 5796,
      "▁Monday": 5797,
      "头发": 5798,
      "house": 5799,
      "7,": 5800,
      "我吗": 5801,
      "OW": 5802,
      "het": 5803,
      "▁increased": 5804,
      "▁dire": 5805,
      "要去": 5806,
      "ellig": 5807,
      "▁max": 5808,
      "▁Im": 5809,
      "真正的": 5810,
      "▁eight": 5811,
      "down": 5812,
      "ares": 5813,
      "▁jump": 5814,
      "place": 5815,
      "▁parties": 5816,
      "ength": 5817,
      "实力": 5818,
      "▁lines": 5819,
      "台北": 5820,
      "▁adop": 5821,
      "搜索": 5822,
      "▁Department": 5823,
      "aly": 5824,
      "國家": 5825,
      "特点": 5826,
      "参考": 5827,
      "6,": 5828,
      "▁harm": 5829,
      "▁overall": 5830,
      "▁supposed": 5831,
      "▁otherwise": 5832,
      "▁appears": 5833,
      "车辆": 5834,
      "观点": 5835,
      "革命": 5836,
      "技術": 5837,
      "▁cry": 5838,
      "请你": 5839,
      "ruary": 5840,
      "▁histor": 5841,
      "基本上": 5842,
      "▁annual": 5843,
      "一会儿": 5844,
      "rench": 5845,
      "季度": 5846,
      "请问": 5847,
      "ager": 5848,
      "上述": 5849,
      "ato": 5850,
      "hether": 5851,
      "充满": 5852,
      "▁und": 5853,
      "▁categ": 5854,
      "▁Year": 5855,
      "足球": 5856,
      "▁partner": 5857,
      "从事": 5858,
      "▁kid": 5859,
      "接触": 5860,
      "为主": 5861,
      "量的": 5862,
      "▁machine": 5863,
      "▁Park": 5864,
      "LE": 5865,
      "颜色": 5866,
      "iver": 5867,
      "公告": 5868,
      "▁distrib": 5869,
      "對於": 5870,
      "有空": 5871,
      "▁biggest": 5872,
      "▁temper": 5873,
      "时期": 5874,
      "物流": 5875,
      "roll": 5876,
      "奶奶": 5877,
      "▁eating": 5878,
      "▁continu": 5879,
      "8,": 5880,
      "利率": 5881,
      "bum": 5882,
      "▁vote": 5883,
      "▁guarant": 5884,
      "首次": 5885,
      "▁player": 5886,
      "IM": 5887,
      "亚洲": 5888,
      "▁garden": 5889,
      "水果": 5890,
      "lus": 5891,
      "▁cards": 5892,
      "▁exercise": 5893,
      "▁den": 5894,
      "lig": 5895,
      "atively": 5896,
      "▁challenges": 5897,
      "小姐": 5898,
      "啊你": 5899,
      "▁quiet": 5900,
      "特別": 5901,
      "▁High": 5902,
      "▁epis": 5903,
      "▁protection": 5904,
      "▁region": 5905,
      "▁ver": 5906,
      "▁citiz": 5907,
      "▁Pre": 5908,
      "▁worse": 5909,
      "深刻": 5910,
      "多年": 5911,
      "isl": 5912,
      "快递": 5913,
      "aid": 5914,
      "des": 5915,
      "问答社区": 5916,
      "▁secret": 5917,
      "▁drink": 5918,
      "▁strength": 5919,
      "危机": 5920,
      "App": 5921,
      "在此": 5922,
      "逐渐": 5923,
      "▁Cor": 5924,
      "安装": 5925,
      "aces": 5926,
      "▁Love": 5927,
      "▁diet": 5928,
      "坐在": 5929,
      "不对": 5930,
      "难以": 5931,
      "推广": 5932,
      "至今": 5933,
      "▁London": 5934,
      "办公室": 5935,
      "放心": 5936,
      "不见": 5937,
      "▁policies": 5938,
      "2-": 5939,
      "今天晚上": 5940,
      "国外": 5941,
      "▁People": 5942,
      "▁therefore": 5943,
      "為了": 5944,
      "Are": 5945,
      "▁toward": 5946,
      "▁Mus": 5947,
      "▁produce": 5948,
      "五六": 5949,
      "黄金": 5950,
      "▁blue": 5951,
      "iled": 5952,
      "广泛": 5953,
      "百分": 5954,
      "▁pattern": 5955,
      "ION": 5956,
      "▁guid": 5957,
      "男生": 5958,
      "▁IN": 5959,
      "站在": 5960,
      "ocol": 5961,
      "▁star": 5962,
      "riage": 5963,
      "关心": 5964,
      "了很多": 5965,
      "▁Center": 5966,
      "财务": 5967,
      "反映": 5968,
      "▁Oh": 5969,
      "吃过": 5970,
      "得很": 5971,
      "appy": 5972,
      "餐厅": 5973,
      "▁sitting": 5974,
      "▁fill": 5975,
      "策略": 5976,
      "▁born": 5977,
      "蛋糕": 5978,
      "lear": 5979,
      "▁Lord": 5980,
      "成都": 5981,
      "▁existing": 5982,
      "oe": 5983,
      "care": 5984,
      "▁homes": 5985,
      "33": 5986,
      "▁walking": 5987,
      "上涨": 5988,
      "更好的": 5989,
      "▁cert": 5990,
      "是要": 5991,
      "5%": 5992,
      "▁update": 5993,
      "共和": 5994,
      "伤害": 5995,
      "事故": 5996,
      "▁followed": 5997,
      "ament": 5998,
      "不喜欢": 5999,
      "▁views": 6000,
      "质的": 6001,
      "不出": 6002,
      "經濟": 6003,
      "▁trouble": 6004,
      "第一个": 6005,
      "▁trend": 6006,
      "我这": 6007,
      "过年": 6008,
      "▁wild": 6009,
      "▁buying": 6010,
      "dy": 6011,
      "是最": 6012,
      "▁street": 6013,
      "▁imagine": 6014,
      "▁characters": 6015,
      "▁finish": 6016,
      "▁prepared": 6017,
      "▁covered": 6018,
      "股东": 6019,
      "iforn": 6020,
      "市场的": 6021,
      "▁cris": 6022,
      "忘了": 6023,
      "aker": 6024,
      "utive": 6025,
      "indows": 6026,
      "会计": 6027,
      "里面的": 6028,
      "▁experiences": 6029,
      "▁balance": 6030,
      "▁entertain": 6031,
      "▁pieces": 6032,
      "▁wedding": 6033,
      "▁leaving": 6034,
      "ech": 6035,
      "▁fab": 6036,
      "rant": 6037,
      "空气": 6038,
      "四个": 6039,
      "见过": 6040,
      "izes": 6041,
      "▁>": 6042,
      "》(": 6043,
      "补充": 6044,
      "pes": 6045,
      "这就是": 6046,
      "▁offering": 6047,
      "yl": 6048,
      "aven": 6049,
      "3、": 6050,
      "密码": 6051,
      "这本书": 6052,
      "▁camera": 6053,
      "使得": 6054,
      "▁discover": 6055,
      "ography": 6056,
      "▁title": 6057,
      "▁ir": 6058,
      "听说": 6059,
      "lock": 6060,
      "rated": 6061,
      "意外": 6062,
      "十九": 6063,
      "ours": 6064,
      "案件": 6065,
      "▁identify": 6066,
      "球员": 6067,
      "女士": 6068,
      "皮肤": 6069,
      "恢复": 6070,
      "很大的": 6071,
      "rael": 6072,
      "▁discussion": 6073,
      "學生": 6074,
      "也不会": 6075,
      "回事": 6076,
      "的味道": 6077,
      "感覺": 6078,
      "icip": 6079,
      "▁encourage": 6080,
      "aries": 6081,
      "400": 6082,
      "▁ww": 6083,
      "▁construction": 6084,
      "▁analysis": 6085,
      "▁demonst": 6086,
      "▁International": 6087,
      "▁becoming": 6088,
      "▁continued": 6089,
      "是吧": 6090,
      "的说": 6091,
      "和平": 6092,
      "再聊": 6093,
      "他就": 6094,
      "特朗": 6095,
      "▁passion": 6096,
      "玩笑": 6097,
      "▁surround": 6098,
      "ray": 6099,
      "怎麼": 6100,
      "拒绝": 6101,
      "增强": 6102,
      "进步": 6103,
      "一句": 6104,
      "▁Val": 6105,
      "影響": 6106,
      "eared": 6107,
      "一直在": 6108,
      "梦想": 6109,
      "▁www": 6110,
      "尝试": 6111,
      "erved": 6112,
      "▁expensive": 6113,
      "▁Maybe": 6114,
      "危险": 6115,
      "很久": 6116,
      "▁psych": 6117,
      "chan": 6118,
      "▁Mon": 6119,
      "▁relevant": 6120,
      "▁Ed": 6121,
      "▁3.": 6122,
      "ifornia": 6123,
      "负责人": 6124,
      "我真的": 6125,
      "see": 6126,
      "▁?": 6127,
      "山东": 6128,
      "▁mer": 6129,
      "認為": 6130,
      "你没": 6131,
      "apter": 6132,
      "▁developing": 6133,
      "哎呀": 6134,
      "▁Ear": 6135,
      "OP": 6136,
      "加班": 6137,
      "▁winter": 6138,
      "同比": 6139,
      "▁feels": 6140,
      "上学": 6141,
      "的很": 6142,
      "一看": 6143,
      "联盟": 6144,
      "TH": 6145,
      "天然": 6146,
      "wide": 6147,
      "信心": 6148,
      "加快": 6149,
      "▁direction": 6150,
      "所在": 6151,
      "体现": 6152,
      "icy": 6153,
      "▁ing": 6154,
      "▁communication": 6155,
      "ran": 6156,
      "▁replace": 6157,
      "指数": 6158,
      "▁throw": 6159,
      "高速": 6160,
      "恐怖": 6161,
      "▁Sw": 6162,
      "企业的": 6163,
      "▁Republic": 6164,
      "venue": 6165,
      "轻松": 6166,
      "▁circum": 6167,
      "▁proud": 6168,
      "▁crit": 6169,
      "你那": 6170,
      "▁sen": 6171,
      "▁cup": 6172,
      "专门": 6173,
      "床上": 6174,
      "▁exciting": 6175,
      "▁Int": 6176,
      "就好了": 6177,
      "▁fra": 6178,
      "洗澡": 6179,
      "▁Make": 6180,
      "玩儿": 6181,
      "总结": 6182,
      "会上": 6183,
      "▁requires": 6184,
      "▁seven": 6185,
      "gn": 6186,
      "的就是": 6187,
      "ometimes": 6188,
      "ulate": 6189,
      "的影响": 6190,
      "告诉你": 6191,
      "▁Gener": 6192,
      "正是": 6193,
      "原本": 6194,
      "进口": 6195,
      "▁thousands": 6196,
      "▁whom": 6197,
      "前往": 6198,
      ".'": 6199,
      "▁shopping": 6200,
      "发了": 6201,
      "失败": 6202,
      "对我": 6203,
      "vis": 6204,
      "还好": 6205,
      "無法": 6206,
      "arc": 6207,
      "特朗普": 6208,
      "拿到": 6209,
      "▁anti": 6210,
      "3-": 6211,
      "▁remo": 6212,
      "精彩": 6213,
      "问题的": 6214,
      "▁limit": 6215,
      "表演": 6216,
      "1000": 6217,
      "▁San": 6218,
      "开了": 6219,
      "dden": 6220,
      "▁transfer": 6221,
      "▁schedule": 6222,
      "实际上": 6223,
      "IG": 6224,
      "▁February": 6225,
      "的情况下": 6226,
      "做法": 6227,
      "之中": 6228,
      "▁IT": 6229,
      "▁ended": 6230,
      "新鲜": 6231,
      "▁mission": 6232,
      "▁mental": 6233,
      "▁stick": 6234,
      "rough": 6235,
      "環境": 6236,
      "overy": 6237,
      "▁accur": 6238,
      "▁federal": 6239,
      "点击": 6240,
      "▁ideal": 6241,
      "▁teams": 6242,
      "▁Home": 6243,
      "我已经": 6244,
      "▁India": 6245,
      "普遍": 6246,
      "警察": 6247,
      "▁organizations": 6248,
      "▁majority": 6249,
      "▁vill": 6250,
      "▁album": 6251,
      "一件": 6252,
      "▁esc": 6253,
      "▁calls": 6254,
      "规则": 6255,
      "不是很": 6256,
      "”“": 6257,
      "相同": 6258,
      "▁videos": 6259,
      "最佳": 6260,
      "缺乏": 6261,
      "先进": 6262,
      "▁completed": 6263,
      "▁names": 6264,
      "ressive": 6265,
      "BA": 6266,
      "最後": 6267,
      "▁cars": 6268,
      "▁uses": 6269,
      "▁plus": 6270,
      "這種": 6271,
      "每个人": 6272,
      "▁decisions": 6273,
      "移民": 6274,
      "▁opened": 6275,
      "▁applications": 6276,
      "▁reveal": 6277,
      "翻译": 6278,
      "▁hospital": 6279,
      "▁Dem": 6280,
      "▁studies": 6281,
      "幼儿": 6282,
      "▁conversation": 6283,
      "hens": 6284,
      "Of": 6285,
      "▁caused": 6286,
      "▁rule": 6287,
      "網站": 6288,
      "在家里": 6289,
      "ils": 6290,
      "▁Cong": 6291,
      "32": 6292,
      "会不会": 6293,
      "▁Because": 6294,
      "no": 6295,
      "尊重": 6296,
      "▁roll": 6297,
      "▁associated": 6298,
      "▁sudden": 6299,
      "▁discovered": 6300,
      "性格": 6301,
      "启动": 6302,
      "▁Market": 6303,
      "▁Char": 6304,
      "▁double": 6305,
      "某些": 6306,
      "49": 6307,
      "ipping": 6308,
      "▁chem": 6309,
      "mpt": 6310,
      "辈子": 6311,
      "istics": 6312,
      "大型": 6313,
      "国务": 6314,
      "探索": 6315,
      "渠道": 6316,
      "大家都": 6317,
      "依法": 6318,
      "采访": 6319,
      "▁critical": 6320,
      "▁factors": 6321,
      "、《": 6322,
      "▁pow": 6323,
      "在于": 6324,
      "▁button": 6325,
      "▁century": 6326,
      "动作": 6327,
      "ST": 6328,
      "回复": 6329,
      "▁delivery": 6330,
      "葡萄": 6331,
      "▁connection": 6332,
      "▁larger": 6333,
      "▁*": 6334,
      "足够": 6335,
      "ctors": 6336,
      "▁mouth": 6337,
      "▁standards": 6338,
      "手术": 6339,
      ".....": 6340,
      "是很": 6341,
      "鼓励": 6342,
      "▁owner": 6343,
      "▁mill": 6344,
      "standing": 6345,
      "acity": 6346,
      "对此": 6347,
      "▁ourselves": 6348,
      "及其": 6349,
      "赶紧": 6350,
      "客人": 6351,
      "oly": 6352,
      "__": 6353,
      "ologies": 6354,
      "日前": 6355,
      "enses": 6356,
      "外国": 6357,
      "▁measure": 6358,
      "给予": 6359,
      "广场": 6360,
      "知名": 6361,
      "▁sector": 6362,
      "▁possibly": 6363,
      "▁victim": 6364,
      "fit": 6365,
      "在这个": 6366,
      "机场": 6367,
      "▁managed": 6368,
      "ham": 6369,
      "始终": 6370,
      "▁mail": 6371,
      "题主": 6372,
      "早餐": 6373,
      "小说": 6374,
      "▁methods": 6375,
      "▁scen": 6376,
      "方的": 6377,
      "▁crow": 6378,
      "▁changing": 6379,
      "▁explore": 6380,
      "▁session": 6381,
      "▁recipe": 6382,
      "招聘": 6383,
      "赚钱": 6384,
      "讲话": 6385,
      "基地": 6386,
      "▁rooms": 6387,
      "▁sexual": 6388,
      "女孩子": 6389,
      "▁handle": 6390,
      "是的": 6391,
      "▁accident": 6392,
      "斯坦": 6393,
      "▁teaching": 6394,
      "办理": 6395,
      "▁21": 6396,
      "好久": 6397,
      "流量": 6398,
      "▁waste": 6399,
      "自主": 6400,
      ",「": 6401,
      "▁electric": 6402,
      "▁technical": 6403,
      "观察": 6404,
      "net": 6405,
      "▁efficient": 6406,
      "nown": 6407,
      "可爱": 6408,
      "▁fans": 6409,
      "▁cast": 6410,
      "描述": 6411,
      "热情": 6412,
      "有时间": 6413,
      "邀请": 6414,
      "又是": 6415,
      "▁opening": 6416,
      "十一": 6417,
      "內容": 6418,
      "▁Red": 6419,
      "▁hearing": 6420,
      "痛苦": 6421,
      "amb": 6422,
      "没想到": 6423,
      "▁delic": 6424,
      "▁laws": 6425,
      "▁Dav": 6426,
      "思维": 6427,
      "▁analy": 6428,
      "我才": 6429,
      "▁fing": 6430,
      "▁Sci": 6431,
      "查看": 6432,
      "▁Who": 6433,
      "▁largest": 6434,
      "▁task": 6435,
      "的時候": 6436,
      "强的": 6437,
      "itute": 6438,
      "▁onto": 6439,
      "lies": 6440,
      "算了": 6441,
      "粉丝": 6442,
      "ulf": 6443,
      "http": 6444,
      "▁status": 6445,
      "度的": 6446,
      "ban": 6447,
      "ipped": 6448,
      "▁tomorrow": 6449,
      "▁adding": 6450,
      "出生": 6451,
      "火车": 6452,
      "▁County": 6453,
      "扩大": 6454,
      "▁Business": 6455,
      "观众": 6456,
      "出現": 6457,
      "iques": 6458,
      "▁conven": 6459,
      "▁East": 6460,
      "▁drug": 6461,
      "▁AND": 6462,
      "我也不知道": 6463,
      "▁showing": 6464,
      "适应": 6465,
      "olf": 6466,
      "▁adjust": 6467,
      "▁Council": 6468,
      "男的": 6469,
      "时的": 6470,
      "去看": 6471,
      "▁advance": 6472,
      "技巧": 6473,
      "▁readers": 6474,
      "▁California": 6475,
      "efully": 6476,
      "BC": 6477,
      "▁smile": 6478,
      "▁ble": 6479,
      "透過": 6480,
      "▁expand": 6481,
      "▁secure": 6482,
      "ship": 6483,
      "▁heavy": 6484,
      "」。": 6485,
      "你这": 6486,
      "phone": 6487,
      "ios": 6488,
      "roid": 6489,
      "▁farm": 6490,
      "生活中": 6491,
      "4,": 6492,
      "时尚": 6493,
      "▁anyway": 6494,
      "▁knowing": 6495,
      "▁scene": 6496,
      "▁ice": 6497,
      "啊我": 6498,
      "▁yesterday": 6499,
      "▁devices": 6500,
      "▁valu": 6501,
      "▁announced": 6502,
      "照顾": 6503,
      "▁90": 6504,
      "如下": 6505,
      "2010": 6506,
      "Have": 6507,
      "不说": 6508,
      "常常": 6509,
      "rapy": 6510,
      "More": 6511,
      "点半": 6512,
      "▁telling": 6513,
      "道理": 6514,
      "工作人员": 6515,
      "aced": 6516,
      "▁sea": 6517,
      "▁Air": 6518,
      "有可能": 6519,
      "▁Life": 6520,
      "叫什么名字": 6521,
      "损失": 6522,
      "害怕": 6523,
      "起了": 6524,
      "▁determine": 6525,
      "其他的": 6526,
      "▁Wed": 6527,
      "▁NOT": 6528,
      "不大": 6529,
      "点钟": 6530,
      "直播": 6531,
      "等待": 6532,
      "▁nor": 6533,
      "▁Israel": 6534,
      "反而": 6535,
      "ossible": 6536,
      "bing": 6537,
      "具备": 6538,
      "广大": 6539,
      "ara": 6540,
      "▁animals": 6541,
      "超市": 6542,
      "平衡": 6543,
      "十三": 6544,
      "▁enh": 6545,
      "▁selection": 6546,
      "▁El": 6547,
      "▁entry": 6548,
      "天津": 6549,
      "AY": 6550,
      "▁length": 6551,
      "▁actions": 6552,
      "▁killed": 6553,
      "▁established": 6554,
      "▁snow": 6555,
      "多次": 6556,
      "最低": 6557,
      "博士": 6558,
      "▁agreement": 6559,
      "▁Canada": 6560,
      "▁Law": 6561,
      "oot": 6562,
      "玻璃": 6563,
      "▁climate": 6564,
      "有时": 6565,
      "会员": 6566,
      "▁sustain": 6567,
      "中小": 6568,
      "大幅": 6569,
      "▁seek": 6570,
      "▁Fin": 6571,
      "rial": 6572,
      "▁cheap": 6573,
      "在一": 6574,
      "orage": 6575,
      "营养": 6576,
      "有钱": 6577,
      "找不到": 6578,
      "每一": 6579,
      "duc": 6580,
      "▁ride": 6581,
      "登记": 6582,
      "idering": 6583,
      "entially": 6584,
      "▁satisf": 6585,
      "inated": 6586,
      "我可以": 6587,
      "▁beach": 6588,
      "▁die": 6589,
      "的方法": 6590,
      "▁score": 6591,
      "▁anywhere": 6592,
      "men": 6593,
      "各地": 6594,
      "10.": 6595,
      "老子": 6596,
      "▁Service": 6597,
      "对不起": 6598,
      "▁highest": 6599,
      "性能": 6600,
      "▁manner": 6601,
      "▁initi": 6602,
      "立即": 6603,
      "▁organis": 6604,
      "▁年": 6605,
      "失望": 6606,
      "May": 6607,
      "咱们": 6608,
      "▁folks": 6609,
      "▁rich": 6610,
      ":0": 6611,
      "准确": 6612,
      "Ad": 6613,
      "vil": 6614,
      "▁80": 6615,
      "▁See": 6616,
      "ommod": 6617,
      "電影": 6618,
      "岗位": 6619,
      "▁memory": 6620,
      "wood": 6621,
      "情绪": 6622,
      "▁Mich": 6623,
      "ulated": 6624,
      "几次": 6625,
      "▁movement": 6626,
      "ald": 6627,
      "▁remains": 6628,
      "▁compared": 6629,
      "地铁": 6630,
      "一大": 6631,
      "▁IS": 6632,
      "▁Other": 6633,
      "▁2010": 6634,
      "▁propos": 6635,
      "ael": 6636,
      "▁emerg": 6637,
      "ml": 6638,
      "▁advent": 6639,
      "▁estate": 6640,
      "整理": 6641,
      "istry": 6642,
      "▁Sim": 6643,
      "▁communities": 6644,
      "大陆": 6645,
      "我只": 6646,
      "▁funds": 6647,
      "▁award": 6648,
      "▁tim": 6649,
      "學習": 6650,
      "▁lunch": 6651,
      "游客": 6652,
      "施工": 6653,
      "▁served": 6654,
      "▁claims": 6655,
      "▁express": 6656,
      "我啊": 6657,
      "▁lived": 6658,
      "inese": 6659,
      "▁markets": 6660,
      "湖南": 6661,
      "▁relationships": 6662,
      "了一些": 6663,
      "包含": 6664,
      "▁bow": 6665,
      "▁closed": 6666,
      "喜欢的": 6667,
      "road": 6668,
      "▁values": 6669,
      "▁master": 6670,
      "完美": 6671,
      "▁Like": 6672,
      "night": 6673,
      "▁reached": 6674,
      "成就": 6675,
      "▁thus": 6676,
      "▁Ste": 6677,
      "▁Obama": 6678,
      "▁»": 6679,
      "前面": 6680,
      "宿舍": 6681,
      "▁rap": 6682,
      "这里的": 6683,
      "▁park": 6684,
      "free": 6685,
      "▁mostly": 6686,
      "老是": 6687,
      "体的": 6688,
      "▁background": 6689,
      "From": 6690,
      "天下": 6691,
      "▁fish": 6692,
      "EL": 6693,
      "rig": 6694,
      "多久": 6695,
      "▁teacher": 6696,
      "ollow": 6697,
      "estern": 6698,
      "▁becomes": 6699,
      "接近": 6700,
      "▁talent": 6701,
      "東西": 6702,
      "▁evalu": 6703,
      "▁remove": 6704,
      "hington": 6705,
      "▁circumst": 6706,
      "带来的": 6707,
      "▁stopped": 6708,
      "▁sports": 6709,
      "▁Out": 6710,
      "▁paying": 6711,
      "▁tree": 6712,
      "▁despite": 6713,
      "还行": 6714,
      "▁files": 6715,
      "的一些": 6716,
      "住房": 6717,
      "奇怪": 6718,
      "长时间": 6719,
      "判断": 6720,
      "▁surprised": 6721,
      "各个": 6722,
      "rol": 6723,
      "▁facilities": 6724,
      "人工": 6725,
      "atically": 6726,
      "江苏": 6727,
      "Once": 6728,
      "▁prec": 6729,
      "▁listed": 6730,
      "的美": 6731,
      "▁forms": 6732,
      "社会主义": 6733,
      "▁guests": 6734,
      "▁hate": 6735,
      "影片": 6736,
      "代理": 6737,
      "感冒": 6738,
      "利亚": 6739,
      "▁conference": 6740,
      "▁caught": 6741,
      "警方": 6742,
      "▁dut": 6743,
      "见到": 6744,
      "▁oppos": 6745,
      "一致": 6746,
      "apers": 6747,
      "产品的": 6748,
      "專業": 6749,
      "你不要": 6750,
      "▁optim": 6751,
      "流程": 6752,
      ",《": 6753,
      "▁happening": 6754,
      "▁competition": 6755,
      "反对": 6756,
      "电池": 6757,
      "知道了": 6758,
      "预期": 6759,
      "承认": 6760,
      "相互": 6761,
      "上课": 6762,
      "4)": 6763,
      "2011": 6764,
      "睡不着": 6765,
      "婚姻": 6766,
      "▁filled": 6767,
      "▁hell": 6768,
      "▁Aut": 6769,
      "▁freed": 6770,
      "▁selling": 6771,
      "ulous": 6772,
      "大战": 6773,
      "▁responsibility": 6774,
      "表明": 6775,
      "品质": 6776,
      "▁interact": 6777,
      "▁Black": 6778,
      "两人": 6779,
      "going": 6780,
      "▁missing": 6781,
      "指标": 6782,
      "的手": 6783,
      "raid": 6784,
      "▁Ne": 6785,
      "▁academ": 6786,
      "▁accompl": 6787,
      "▁Court": 6788,
      "发行": 6789,
      "公平": 6790,
      "这款": 6791,
      "▁mur": 6792,
      "中间": 6793,
      "▁libr": 6794,
      "▁dollars": 6795,
      "不一样": 6796,
      "▁placed": 6797,
      "寻找": 6798,
      "▁rise": 6799,
      "玩了": 6800,
      "也不错": 6801,
      "会在": 6802,
      "拜拜": 6803,
      "住在": 6804,
      "▁boo": 6805,
      "▁visitors": 6806,
      "定位": 6807,
      "写的": 6808,
      "▁sam": 6809,
      "大众": 6810,
      "▁minimum": 6811,
      "没有啊": 6812,
      "(1)": 6813,
      "▁bedroom": 6814,
      "▁described": 6815,
      "asy": 6816,
      "▁brief": 6817,
      "mes": 6818,
      "▁Up": 6819,
      "治理": 6820,
      "▁assistance": 6821,
      "试试": 6822,
      "究竟": 6823,
      "▁grant": 6824,
      "的呀": 6825,
      "▁feedback": 6826,
      "▁Net": 6827,
      "▁classes": 6828,
      "了他": 6829,
      "▁coverage": 6830,
      "▁boys": 6831,
      "iation": 6832,
      "▁rain": 6833,
      "關係": 6834,
      "权利": 6835,
      "▁perspect": 6836,
      "想想": 6837,
      "拍摄": 6838,
      "记忆": 6839,
      "icing": 6840,
      "日起": 6841,
      "▁crisis": 6842,
      "”、“": 6843,
      "国家的": 6844,
      "erous": 6845,
      "▁Direct": 6846,
      "▁vision": 6847,
      "bon": 6848,
      "raft": 6849,
      "有利": 6850,
      "▁concerned": 6851,
      "细节": 6852,
      "没办法": 6853,
      "绿色": 6854,
      "传播": 6855,
      "onna": 6856,
      "ternoon": 6857,
      "每一个": 6858,
      "?!": 6859,
      "▁sources": 6860,
      "▁shut": 6861,
      "▁taste": 6862,
      "600": 6863,
      "▁motiv": 6864,
      "你这个": 6865,
      "▁raised": 6866,
      "开车": 6867,
      "就没有": 6868,
      "▁arm": 6869,
      "和他": 6870,
      "最多": 6871,
      "ancing": 6872,
      "▁favour": 6873,
      "▁starts": 6874,
      "一定的": 6875,
      "itness": 6876,
      "▁Street": 6877,
      "▁virt": 6878,
      "ero": 6879,
      "▁Inc": 6880,
      "estic": 6881,
      "近期": 6882,
      "▁legisl": 6883,
      "地球": 6884,
      "▁wis": 6885,
      "发动": 6886,
      "▁Us": 6887,
      "河南": 6888,
      "看电视": 6889,
      "▁)": 6890,
      "睡了": 6891,
      "▁funny": 6892,
      "▁indeed": 6893,
      "分手": 6894,
      "▁structure": 6895,
      "一场": 6896,
      "▁yours": 6897,
      "Se": 6898,
      "▁central": 6899,
      "▁behavior": 6900,
      "▁corner": 6901,
      "miss": 6902,
      "我不想": 6903,
      "▁raise": 6904,
      "加工": 6905,
      "心中": 6906,
      "▁wine": 6907,
      "▁pregn": 6908,
      "▁intellig": 6909,
      "▁experts": 6910,
      "的故事": 6911,
      "▁leader": 6912,
      "rees": 6913,
      "武器": 6914,
      "表情": 6915,
      "这位": 6916,
      "大力": 6917,
      "▁teach": 6918,
      "▁station": 6919,
      "▁standing": 6920,
      "得了": 6921,
      "▁concerns": 6922,
      "机械": 6923,
      "▁teachers": 6924,
      "确认": 6925,
      "▁British": 6926,
      "▁weap": 6927,
      "不需要": 6928,
      "有趣": 6929,
      "合法": 6930,
      "高级": 6931,
      "▁brows": 6932,
      "看你": 6933,
      "意大利": 6934,
      "欧盟": 6935,
      "ugg": 6936,
      "夏天": 6937,
      "短信": 6938,
      "▁desire": 6939,
      "urg": 6940,
      "uesday": 6941,
      "▁unit": 6942,
      "▁reviews": 6943,
      "物质": 6944,
      "加拿": 6945,
      "▁volunte": 6946,
      "▁pm": 6947,
      "▁calling": 6948,
      "▁novel": 6949,
      "国的": 6950,
      "pen": 6951,
      "紧张": 6952,
      "▁Gl": 6953,
      "Also": 6954,
      "▁soul": 6955,
      "ursday": 6956,
      "47": 6957,
      "西方": 6958,
      "▁furn": 6959,
      "高校": 6960,
      "cohol": 6961,
      "▁primary": 6962,
      "▁impl": 6963,
      "青春": 6964,
      "rible": 6965,
      "▁birthday": 6966,
      "你来": 6967,
      "正好": 6968,
      "出来了": 6969,
      "性和": 6970,
      "▁reli": 6971,
      "我不会": 6972,
      "▁negative": 6973,
      "▁counter": 6974,
      "▁properly": 6975,
      "我来": 6976,
      "raw": 6977,
      "cel": 6978,
      "▁bright": 6979,
      "作出": 6980,
      "▁但": 6981,
      "我们在": 6982,
      "清晰": 6983,
      "评估": 6984,
      "顺利": 6985,
      "▁fee": 6986,
      "情人": 6987,
      "同志": 6988,
      "ception": 6989,
      "把它": 6990,
      "的老": 6991,
      "区别": 6992,
      "中共": 6993,
      "相应": 6994,
      "对手": 6995,
      "▁restaurant": 6996,
      "▁clin": 6997,
      "是怎么": 6998,
      "▁noticed": 6999,
      "无人": 7000,
      "那就是": 7001,
      "▁sympt": 7002,
      "ildren": 7003,
      "小米": 7004,
      "▁visiting": 7005,
      "▁accommod": 7006,
      "男孩": 7007,
      "▁distance": 7008,
      "支撑": 7009,
      "周末": 7010,
      "this": 7011,
      "▁unc": 7012,
      "▁spring": 7013,
      "健身": 7014,
      "▁married": 7015,
      "投資": 7016,
      "矛盾": 7017,
      "▁;": 7018,
      "国务院": 7019,
      "不来": 7020,
      "essions": 7021,
      "▁familiar": 7022,
      "冠军": 7023,
      "▁confident": 7024,
      "说说": 7025,
      "▁rob": 7026,
      "▁compon": 7027,
      "截至": 7028,
      "▁fashion": 7029,
      "▁White": 7030,
      "承诺": 7031,
      "看到了": 7032,
      "▁eventually": 7033,
      "Me": 7034,
      "機會": 7035,
      "允许": 7036,
      "留下": 7037,
      "▁crazy": 7038,
      "一只": 7039,
      "▁Sen": 7040,
      "公交": 7041,
      "看待": 7042,
      "购物": 7043,
      "uman": 7044,
      "alt": 7045,
      "▁emp": 7046,
      "元的": 7047,
      "▁quarter": 7048,
      "事实上": 7049,
      "把他": 7050,
      "▁thread": 7051,
      "到现在": 7052,
      "▁seriously": 7053,
      "主持": 7054,
      "▁sick": 7055,
      "必須": 7056,
      "▁Pat": 7057,
      "hop": 7058,
      "▁Best": 7059,
      "▁conflic": 7060,
      "▁Web": 7061,
      "赛季": 7062,
      "roy": 7063,
      "68": 7064,
      "▁assign": 7065,
      "akers": 7066,
      "▁driver": 7067,
      "透露": 7068,
      "的基础": 7069,
      "▁French": 7070,
      "明年": 7071,
      "▁election": 7072,
      "▁beauty": 7073,
      "外交": 7074,
      "司机": 7075,
      "▁flex": 7076,
      "道德": 7077,
      "vere": 7078,
      "的书": 7079,
      "▁journal": 7080,
      "运输": 7081,
      "box": 7082,
      "▁professionals": 7083,
      "▁70": 7084,
      "▁afraid": 7085,
      "▁ap": 7086,
      "把握": 7087,
      "ears": 7088,
      "▁separate": 7089,
      "他妈的": 7090,
      "(2)": 7091,
      "去吃": 7092,
      "夫妻": 7093,
      "▁hoping": 7094,
      "▁Take": 7095,
      "she": 7096,
      "你都": 7097,
      "等我": 7098,
      "即将": 7099,
      "▁obvious": 7100,
      "其它": 7101,
      "▁Once": 7102,
      "iration": 7103,
      "▁returned": 7104,
      "▁breakfast": 7105,
      "基于": 7106,
      "加坡": 7107,
      "▁herself": 7108,
      "▁EU": 7109,
      "當然": 7110,
      "ums": 7111,
      "律师": 7112,
      "当年": 7113,
      "▁sister": 7114,
      "的主要": 7115,
      "▁Washington": 7116,
      "這裡": 7117,
      "▁Ser": 7118,
      "▁dram": 7119,
      "Many": 7120,
      "否则": 7121,
      "▁beat": 7122,
      "挺好的": 7123,
      "▁usual": 7124,
      "的地": 7125,
      "淘宝": 7126,
      "▁Since": 7127,
      "▁neighbor": 7128,
      "▁ship": 7129,
      "各类": 7130,
      "情况下": 7131,
      "Since": 7132,
      "▁shape": 7133,
      "bl": 7134,
      "▁committed": 7135,
      "巨大的": 7136,
      "两次": 7137,
      "大小": 7138,
      "IF": 7139,
      "▁holding": 7140,
      "法规": 7141,
      "▁websites": 7142,
      "很不错": 7143,
      "共享": 7144,
      "wr": 7145,
      "可以在": 7146,
      "▁joy": 7147,
      "》、《": 7148,
      "然後": 7149,
      "▁assum": 7150,
      "▁afternoon": 7151,
      "▁Sa": 7152,
      "才会": 7153,
      "▁solid": 7154,
      "-5": 7155,
      "军事": 7156,
      "Even": 7157,
      "rim": 7158,
      "tra": 7159,
      "前的": 7160,
      "▁mechan": 7161,
      "违法": 7162,
      "我叫": 7163,
      "▁none": 7164,
      "石油": 7165,
      "▁fell": 7166,
      "▁https": 7167,
      "尼斯": 7168,
      "▁matters": 7169,
      "简直": 7170,
      "一千": 7171,
      "EM": 7172,
      "人員": 7173,
      "当中": 7174,
      "▁sav": 7175,
      "Hey": 7176,
      "arently": 7177,
      "▁showed": 7178,
      "▁practices": 7179,
      "▁eth": 7180,
      "▁batter": 7181,
      "資訊": 7182,
      "意的": 7183,
      "▁smaller": 7184,
      "anch": 7185,
      "結果": 7186,
      "▁interests": 7187,
      "▁discount": 7188,
      "全世界": 7189,
      "相片": 7190,
      "我就是": 7191,
      "▁Services": 7192,
      "▁collabor": 7193,
      "提供了": 7194,
      "▁compre": 7195,
      "▁Ac": 7196,
      "equ": 7197,
      "你呢": 7198,
      "cked": 7199,
      "女子": 7200,
      "osure": 7201,
      "▁bless": 7202,
      "▁theme": 7203,
      "nding": 7204,
      "我给你": 7205,
      "First": 7206,
      "▁citizens": 7207,
      "他不": 7208,
      "▁ingred": 7209,
      "车型": 7210,
      "快的": 7211,
      "装备": 7212,
      "▁approx": 7213,
      "明的": 7214,
      "周围": 7215,
      "素质": 7216,
      "中国人": 7217,
      "omb": 7218,
      "▁Chinese": 7219,
      "住了": 7220,
      "cket": 7221,
      "▁Sam": 7222,
      "▁independent": 7223,
      "▁speaking": 7224,
      "营业": 7225,
      "▁fellow": 7226,
      "een": 7227,
      "▁Office": 7228,
      "▁Australia": 7229,
      "农民": 7230,
      "lin": 7231,
      "poses": 7232,
      "出席": 7233,
      "▁agency": 7234,
      "95": 7235,
      "▁medic": 7236,
      "▁alternative": 7237,
      "▁paint": 7238,
      "66": 7239,
      "ello": 7240,
      "称为": 7241,
      "电动": 7242,
      "房屋": 7243,
      "▁Develop": 7244,
      "▁Associ": 7245,
      "▁liked": 7246,
      "▁arrived": 7247,
      "tenance": 7248,
      "was": 7249,
      "▁Em": 7250,
      "信任": 7251,
      "新加坡": 7252,
      "组合": 7253,
      "▁Africa": 7254,
      "融合": 7255,
      "▁fuck": 7256,
      "▁cas": 7257,
      "就可以了": 7258,
      "▁leadership": 7259,
      "▁Time": 7260,
      "协调": 7261,
      "一段": 7262,
      "▁dogs": 7263,
      "等到": 7264,
      "▁focused": 7265,
      "事儿": 7266,
      "随后": 7267,
      "讨厌": 7268,
      "我还是": 7269,
      "▁loan": 7270,
      "强烈": 7271,
      "▁confidence": 7272,
      "▁Government": 7273,
      "新华": 7274,
      "式的": 7275,
      "日在": 7276,
      "ica": 7277,
      "▁Rec": 7278,
      "800": 7279,
      "▁hurt": 7280,
      "▁Americans": 7281,
      "▁retail": 7282,
      "文学": 7283,
      "部长": 7284,
      "2008": 7285,
      "检测": 7286,
      "在哪": 7287,
      "▁tough": 7288,
      "车的": 7289,
      "▁Pri": 7290,
      "像是": 7291,
      "uries": 7292,
      "好吃的": 7293,
      "之下": 7294,
      "尽量": 7295,
      "New": 7296,
      "▁Hot": 7297,
      "▁continues": 7298,
      "▁techniques": 7299,
      "能量": 7300,
      "▁funding": 7301,
      "两种": 7302,
      "去找": 7303,
      "摄影": 7304,
      "itors": 7305,
      "时刻": 7306,
      "被人": 7307,
      "而在": 7308,
      "▁missed": 7309,
      "▁consequ": 7310,
      "各项": 7311,
      "▁Book": 7312,
      "ervation": 7313,
      "icians": 7314,
      "老家": 7315,
      "能夠": 7316,
      "取消": 7317,
      "▁compar": 7318,
      "▁2013": 7319,
      "真心": 7320,
      "很容易": 7321,
      "Good": 7322,
      "▁bird": 7323,
      "面上": 7324,
      "▁command": 7325,
      "▁Pal": 7326,
      "▁estim": 7327,
      "Ar": 7328,
      "▁Jack": 7329,
      "abilities": 7330,
      "巨大": 7331,
      "推薦": 7332,
      "▁impossible": 7333,
      "打击": 7334,
      "▁documents": 7335,
      "▁198": 7336,
      "▁Ass": 7337,
      "▁decades": 7338,
      "▁surprise": 7339,
      "日的": 7340,
      "▁capacity": 7341,
      "上班吗": 7342,
      "高考": 7343,
      "怎样的": 7344,
      "离婚": 7345,
      "回来了": 7346,
      "TM": 7347,
      "網路": 7348,
      "计算机": 7349,
      "▁Rem": 7350,
      "這麼": 7351,
      "▁broken": 7352,
      "▁somewhere": 7353,
      "▁marriage": 7354,
      "妻子": 7355,
      "的同时": 7356,
      "豆腐": 7357,
      "帅哥": 7358,
      "主管": 7359,
      "aked": 7360,
      "提示": 7361,
      "Most": 7362,
      "整合": 7363,
      "近年来": 7364,
      "就行了": 7365,
      "▁cream": 7366,
      "现金": 7367,
      "跟着": 7368,
      "▁exchange": 7369,
      "198": 7370,
      "arian": 7371,
      "nesday": 7372,
      "gram": 7373,
      "▁establish": 7374,
      "▁dedicated": 7375,
      "ternal": 7376,
      "amily": 7377,
      "▁sand": 7378,
      "ico": 7379,
      "▁bathroom": 7380,
      "can": 7381,
      "就没": 7382,
      "Or": 7383,
      "共有": 7384,
      "▁pus": 7385,
      "财富": 7386,
      "pet": 7387,
      "▁testing": 7388,
      "Get": 7389,
      "▁chann": 7390,
      "人数": 7391,
      "原油": 7392,
      "這是": 7393,
      "icken": 7394,
      "她说": 7395,
      "illy": 7396,
      "▁Twitter": 7397,
      "........": 7398,
      "▁elements": 7399,
      "▁importance": 7400,
      "更有": 7401,
      "分配": 7402,
      "▁resol": 7403,
      "▁Plan": 7404,
      "utor": 7405,
      "专业的": 7406,
      "tw": 7407,
      "大哥": 7408,
      "▁storage": 7409,
      "威胁": 7410,
      "porary": 7411,
      "▁resist": 7412,
      "逐步": 7413,
      "共产": 7414,
      "▁influence": 7415,
      "78": 7416,
      "▁initial": 7417,
      "顾客": 7418,
      "iber": 7419,
      "▁circumstances": 7420,
      "▁violence": 7421,
      "▁stream": 7422,
      "在你": 7423,
      "▁highlight": 7424,
      "▁considering": 7425,
      "▁presence": 7426,
      "如果是": 7427,
      "昨晚": 7428,
      "一会": 7429,
      "编辑": 7430,
      "uled": 7431,
      "好友": 7432,
      "男性": 7433,
      "▁pun": 7434,
      "發生": 7435,
      "武汉": 7436,
      "▁ST": 7437,
      "为什么要": 7438,
      "▁valuable": 7439,
      "阳光": 7440,
      "业绩": 7441,
      "▁desk": 7442,
      "为什么不": 7443,
      "▁mark": 7444,
      "▁purposes": 7445,
      "▁2012": 7446,
      "▁Tuesday": 7447,
      "你在干什么": 7448,
      "优化": 7449,
      "▁Thursday": 7450,
      "▁tea": 7451,
      "师傅": 7452,
      "▁episode": 7453,
      "▁proceed": 7454,
      "▁diagn": 7455,
      "决策": 7456,
      "倒是": 7457,
      "提到": 7458,
      "▁battle": 7459,
      "▁Board": 7460,
      "自信": 7461,
      "金额": 7462,
      "科研": 7463,
      "▁mort": 7464,
      "但在": 7465,
      "店里": 7466,
      "养老": 7467,
      "tion": 7468,
      "▁lawy": 7469,
      "▁Group": 7470,
      "ij": 7471,
      "怎么会": 7472,
      "▁department": 7473,
      "发过来": 7474,
      "SS": 7475,
      "inct": 7476,
      "批准": 7477,
      "▁Bel": 7478,
      "UT": 7479,
      "▁launch": 7480,
      "vention": 7481,
      "46": 7482,
      "委会": 7483,
      "的内容": 7484,
      "▁sugar": 7485,
      "停车": 7486,
      "ett": 7487,
      "▁slightly": 7488,
      "坏了": 7489,
      "▁weak": 7490,
      "▁belief": 7491,
      "▁anx": 7492,
      "手機": 7493,
      "的了": 7494,
      "繼續": 7495,
      "150": 7496,
      "我今天": 7497,
      "司法": 7498,
      "▁terror": 7499,
      "ooper": 7500,
      "ifts": 7501,
      "好啦": 7502,
      "出來": 7503,
      "打工": 7504,
      "很好吃": 7505,
      "gel": 7506,
      "为何": 7507,
      "▁bigger": 7508,
      "運動": 7509,
      "▁arrange": 7510,
      "良好": 7511,
      "彼此": 7512,
      "添加": 7513,
      "itect": 7514,
      "▁veget": 7515,
      "irty": 7516,
      "▁valid": 7517,
      "eds": 7518,
      "▁appeal": 7519,
      "izz": 7520,
      "没有什么": 7521,
      "▁har": 7522,
      "队伍": 7523,
      "▁greatest": 7524,
      "life": 7525,
      "▁models": 7526,
      "▁Church": 7527,
      "面试": 7528,
      "▁transl": 7529,
      "▁answers": 7530,
      "五年": 7531,
      "cont": 7532,
      "找我": 7533,
      "秘密": 7534,
      "电商": 7535,
      "▁adults": 7536,
      "转型": 7537,
      "orough": 7538,
      "▁Check": 7539,
      "失去": 7540,
      "那一": 7541,
      "▁manager": 7542,
      "▁4.": 7543,
      "问我": 7544,
      "浪费": 7545,
      "▁Educ": 7546,
      "▁fees": 7547,
      "幺三": 7548,
      "▁cab": 7549,
      "阿里": 7550,
      "▁Keep": 7551,
      "万人": 7552,
      "见面": 7553,
      "▁dating": 7554,
      "pan": 7555,
      "引导": 7556,
      "外的": 7557,
      "▁records": 7558,
      "加拿大": 7559,
      "小组": 7560,
      "oman": 7561,
      "▁pleasure": 7562,
      "学术": 7563,
      "▁prison": 7564,
      "部的": 7565,
      "iest": 7566,
      "▁worst": 7567,
      "▁corporate": 7568,
      "▁island": 7569,
      "酷跑": 7570,
      "州市": 7571,
      "▁numerous": 7572,
      "人大": 7573,
      "▁pair": 7574,
      "中学": 7575,
      "等着": 7576,
      "works": 7577,
      "睡着": 7578,
      "▁freedom": 7579,
      "的产品": 7580,
      "den": 7581,
      "我对": 7582,
      "怎么说": 7583,
      "▁shouldn": 7584,
      "减肥": 7585,
      "ender": 7586,
      "▁environmental": 7587,
      "▁package": 7588,
      "▁minor": 7589,
      "▁walked": 7590,
      "▁plants": 7591,
      "物理": 7592,
      "來說": 7593,
      "▁kinds": 7594,
      "战斗": 7595,
      "年底": 7596,
      "ront": 7597,
      "妹子": 7598,
      "面包": 7599,
      "▁colors": 7600,
      "5,": 7601,
      "▁recommended": 7602,
      "▁Company": 7603,
      "▁operations": 7604,
      "▁administration": 7605,
      "▁pleased": 7606,
      "▁Hall": 7607,
      "▁seconds": 7608,
      "▁complic": 7609,
      "▁oblig": 7610,
      "福利": 7611,
      "▁graph": 7612,
      "▁flat": 7613,
      "De": 7614,
      "▁sched": 7615,
      "▁generation": 7616,
      "▁cute": 7617,
      "人了": 7618,
      "▁shock": 7619,
      "公路": 7620,
      "留学": 7621,
      "▁stated": 7622,
      "pport": 7623,
      "PP": 7624,
      "tered": 7625,
      "▁Post": 7626,
      "▁labor": 7627,
      "答应": 7628,
      "▁concern": 7629,
      "spe": 7630,
      "海洋": 7631,
      "生存": 7632,
      "dered": 7633,
      "▁swim": 7634,
      "44": 7635,
      "不算": 7636,
      "蔬菜": 7637,
      "以上的": 7638,
      "known": 7639,
      "OD": 7640,
      "工厂": 7641,
      "Today": 7642,
      "加油": 7643,
      "生活的": 7644,
      "▁forced": 7645,
      "我再": 7646,
      "的一种": 7647,
      "▁Paul": 7648,
      "gment": 7649,
      "▁wondering": 7650,
      "维持": 7651,
      "介紹": 7652,
      "▁measures": 7653,
      "▁poll": 7654,
      "ida": 7655,
      "攻击": 7656,
      "aling": 7657,
      "▁personally": 7658,
      "官网": 7659,
      "▁+": 7660,
      "▁entirely": 7661,
      "▁Today": 7662,
      "▁bul": 7663,
      "▁symptoms": 7664,
      "▁push": 7665,
      "▁officials": 7666,
      "▁meal": 7667,
      "gery": 7668,
      "常见": 7669,
      "信号": 7670,
      "Hello": 7671,
      "▁dump": 7672,
      "▁Where": 7673,
      "孩子们": 7674,
      "▁residents": 7675,
      "森林": 7676,
      "覆盖": 7677,
      "演员": 7678,
      "▁emergency": 7679,
      "性价": 7680,
      "布局": 7681,
      "▁failed": 7682,
      "▁cities": 7683,
      "▁arms": 7684,
      "▁turns": 7685,
      "▁outdo": 7686,
      "58": 7687,
      "▁searching": 7688,
      "▁Word": 7689,
      "▁Commission": 7690,
      "ifying": 7691,
      "▁crowd": 7692,
      "恋爱": 7693,
      "▁presented": 7694,
      "▁strategies": 7695,
      "应对": 7696,
      "突出": 7697,
      "CH": 7698,
      "▁dangerous": 7699,
      "加大": 7700,
      "iency": 7701,
      "我妈": 7702,
      "▁depending": 7703,
      "▁Christian": 7704,
      "▁promote": 7705,
      "▁surface": 7706,
      "空调": 7707,
      "另一个": 7708,
      "▁suspect": 7709,
      "什么意思": 7710,
      "▁motor": 7711,
      "▁clothes": 7712,
      "▁twice": 7713,
      "阿姨": 7714,
      "博物": 7715,
      "行情": 7716,
      "的吧": 7717,
      "▁manufacture": 7718,
      "▁liber": 7719,
      "他人": 7720,
      "▁choices": 7721,
      "▁emer": 7722,
      "▁Over": 7723,
      "西安": 7724,
      "▁produced": 7725,
      "▁General": 7726,
      "▁injury": 7727,
      "▁prepare": 7728,
      "▁agreed": 7729,
      "二维": 7730,
      "▁crime": 7731,
      "小時": 7732,
      "一起去": 7733,
      "cr": 7734,
      ");": 7735,
      "▁Big": 7736,
      "▁closer": 7737,
      "▁ang": 7738,
      "众多": 7739,
      "處理": 7740,
      "ym": 7741,
      "hips": 7742,
      "▁picked": 7743,
      "Des": 7744,
      "▁carried": 7745,
      "Pe": 7746,
      "通過": 7747,
      "CC": 7748,
      "▁occasion": 7749,
      "理财": 7750,
      "地上": 7751,
      "化妆": 7752,
      "礼物": 7753,
      "年轻人": 7754,
      "Pl": 7755,
      "不久": 7756,
      "lege": 7757,
      "的多": 7758,
      "▁instit": 7759,
      "▁2,": 7760,
      "不开": 7761,
      "那时候": 7762,
      "案例": 7763,
      "uclear": 7764,
      "▁incor": 7765,
      "那麼": 7766,
      "▁delicious": 7767,
      "▁operating": 7768,
      ".’": 7769,
      "此前": 7770,
      "▁named": 7771,
      "~~~": 7772,
      "▁trees": 7773,
      "怀疑": 7774,
      "问一下": 7775,
      "idden": 7776,
      "▁Congress": 7777,
      "并非": 7778,
      "▁practical": 7779,
      "▁chair": 7780,
      "藝術": 7781,
      "考生": 7782,
      "ixt": 7783,
      "▁signs": 7784,
      "▁map": 7785,
      "仅仅": 7786,
      "▁context": 7787,
      "▁Amaz": 7788,
      "▁goods": 7789,
      "▁decor": 7790,
      "吃什么": 7791,
      "▁gonna": 7792,
      "我操": 7793,
      "▁failure": 7794,
      "大学生": 7795,
      "会的": 7796,
      "想着": 7797,
      "东北": 7798,
      "erry": 7799,
      "在大": 7800,
      "▁reference": 7801,
      "▁shoot": 7802,
      "▁facts": 7803,
      "ENT": 7804,
      "▁Free": 7805,
      "独特": 7806,
      "本科": 7807,
      "组成": 7808,
      "环节": 7809,
      "音樂": 7810,
      "▁drugs": 7811,
      "没有人": 7812,
      "▁accounts": 7813,
      "的要求": 7814,
      "就去": 7815,
      "这样子": 7816,
      "▁tele": 7817,
      "▁brings": 7818,
      "ferences": 7819,
      "▁disappoint": 7820,
      "▁Each": 7821,
      "你干嘛": 7822,
      "停止": 7823,
      "rd": 7824,
      "▁complain": 7825,
      "▁Social": 7826,
      "wered": 7827,
      "▁perspective": 7828,
      "▁fort": 7829,
      "访问": 7830,
      "etic": 7831,
      "志愿": 7832,
      "odes": 7833,
      "oop": 7834,
      "区的": 7835,
      "我也是": 7836,
      "▁egg": 7837,
      "▁Trans": 7838,
      "一點": 7839,
      "while": 7840,
      "▁enem": 7841,
      "简单的": 7842,
      "iture": 7843,
      "▁survey": 7844,
      "回忆": 7845,
      "que": 7846,
      "▁reasonable": 7847,
      "▁AM": 7848,
      "▁director": 7849,
      "别人的": 7850,
      "▁Wednesday": 7851,
      "▁seat": 7852,
      "当天": 7853,
      "他家": 7854,
      "▁youth": 7855,
      "月的": 7856,
      "火锅": 7857,
      "加盟": 7858,
      "朝鲜": 7859,
      "充电": 7860,
      "▁England": 7861,
      "找个": 7862,
      "你个": 7863,
      "连接": 7864,
      "▁intended": 7865,
      "空間": 7866,
      "公民": 7867,
      "采购": 7868,
      "预测": 7869,
      "agram": 7870,
      "店的": 7871,
      "Read": 7872,
      "打了": 7873,
      "教练": 7874,
      "消失": 7875,
      "▁notes": 7876,
      "唱歌": 7877,
      "性价比": 7878,
      "77": 7879,
      "▁odd": 7880,
      "aming": 7881,
      "▁female": 7882,
      "▁aid": 7883,
      "▁lucky": 7884,
      "▁anymore": 7885,
      "ani": 7886,
      "是对": 7887,
      "umn": 7888,
      "一人": 7889,
      "▁connected": 7890,
      "▁signed": 7891,
      "化学": 7892,
      "▁alcohol": 7893,
      "进来": 7894,
      "做饭": 7895,
      "▁fuel": 7896,
      "零售": 7897,
      "▁Although": 7898,
      "和其他": 7899,
      "▁animal": 7900,
      "▁cloud": 7901,
      "级的": 7902,
      "▁wealth": 7903,
      "部署": 7904,
      "▁examples": 7905,
      "社交": 7906,
      "稍微": 7907,
      "西班": 7908,
      "一块": 7909,
      "▁speech": 7910,
      "帮忙": 7911,
      "alled": 7912,
      "▁trial": 7913,
      "▁ment": 7914,
      "贯彻": 7915,
      "在那": 7916,
      "▁core": 7917,
      "彻底": 7918,
      "▁forgot": 7919,
      "便利": 7920,
      "宗教": 7921,
      "▁apartment": 7922,
      "平方米": 7923,
      "OK": 7924,
      "▁hundreds": 7925,
      "state": 7926,
      "美国的": 7927,
      "▁chat": 7928,
      "日电": 7929,
      "想起": 7930,
      "三天": 7931,
      "▁wearing": 7932,
      "聊了": 7933,
      "西班牙": 7934,
      "▁judge": 7935,
      "股权": 7936,
      "的話": 7937,
      "上有": 7938,
      "元素": 7939,
      "▁leaves": 7940,
      "改造": 7941,
      "▁repair": 7942,
      "差距": 7943,
      "▁ye": 7944,
      "▁exhib": 7945,
      "▁bringing": 7946,
      "98": 7947,
      "二维码": 7948,
      "▁songs": 7949,
      "▁scale": 7950,
      "Because": 7951,
      "▁suit": 7952,
      "▁writer": 7953,
      "口感": 7954,
      "2009": 7955,
      "月底": 7956,
      "▁delight": 7957,
      "▁radio": 7958,
      "▁restrict": 7959,
      "Where": 7960,
      "▁foods": 7961,
      "ait": 7962,
      "你呀": 7963,
      "▁dy": 7964,
      "好玩": 7965,
      "媳妇": 7966,
      "纪念": 7967,
      "antic": 7968,
      "给了": 7969,
      "▁runs": 7970,
      "▁arrest": 7971,
      "▁commitment": 7972,
      "▁dad": 7973,
      "这一点": 7974,
      "▁movies": 7975,
      "对外": 7976,
      "好想": 7977,
      "动画": 7978,
      "不及": 7979,
      "不像": 7980,
      "iers": 7981,
      "▁faster": 7982,
      "▁famous": 7983,
      "▁perfectly": 7984,
      "例子": 7985,
      "▁detailed": 7986,
      "▁writ": 7987,
      "▁occup": 7988,
      "身體": 7989,
      "▁ON": 7990,
      "歌曲": 7991,
      "走到": 7992,
      "lder": 7993,
      "互相": 7994,
      "fection": 7995,
      "收藏": 7996,
      "▁maintenance": 7997,
      "主角": 7998,
      "▁reform": 7999,
      "印刷": 8000,
      "丈夫": 8001,
      "▁burn": 8002,
      "简称": 8003,
      "▁updated": 8004,
      "IL": 8005,
      "▁incredible": 8006,
      "出发": 8007,
      "定了": 8008,
      "成交": 8009,
      "rary": 8010,
      "▁News": 8011,
      "云南": 8012,
      "锻炼": 8013,
      "设立": 8014,
      "▁seeking": 8015,
      "▁Techn": 8016,
      "▁。": 8017,
      "本地": 8018,
      "重要的是": 8019,
      "这也是": 8020,
      "实话": 8021,
      "▁aspects": 8022,
      "▁contains": 8023,
      "unning": 8024,
      "澳大利": 8025,
      "▁predict": 8026,
      "過程": 8027,
      "的价格": 8028,
      "▁arg": 8029,
      "▁100%": 8030,
      "▁parking": 8031,
      "三星": 8032,
      "个小时": 8033,
      "經驗": 8034,
      "多种": 8035,
      "oles": 8036,
      "▁employment": 8037,
      "▁smooth": 8038,
      "铁路": 8039,
      "Go": 8040,
      "可怜": 8041,
      "▁Super": 8042,
      "▁gather": 8043,
      "uce": 8044,
      "未来的": 8045,
      "▁fixed": 8046,
      "未來": 8047,
      "olic": 8048,
      "▁football": 8049,
      "的有": 8050,
      "后悔": 8051,
      "大大": 8052,
      "▁laugh": 8053,
      "IV": 8054,
      "under": 8055,
      "晚饭": 8056,
      "人力": 8057,
      "▁calc": 8058,
      "▁sight": 8059,
      "第五": 8060,
      "一片": 8061,
      "▁disp": 8062,
      "▁22": 8063,
      "仔细": 8064,
      "▁Earth": 8065,
      "大约": 8066,
      "▁rapid": 8067,
      "簡單": 8068,
      "得到了": 8069,
      "銀行": 8070,
      "▁posting": 8071,
      "lam": 8072,
      "新疆": 8073,
      "▁advanced": 8074,
      "我们要": 8075,
      "▁menu": 8076,
      "债券": 8077,
      "开玩笑": 8078,
      "zen": 8079,
      "▁operation": 8080,
      "▁Look": 8081,
      "▁frust": 8082,
      "▁grab": 8083,
      "校园": 8084,
      "Tw": 8085,
      "分子": 8086,
      "▁Apple": 8087,
      "Le": 8088,
      "Who": 8089,
      "▁clim": 8090,
      "look": 8091,
      "不容易": 8092,
      "▁moments": 8093,
      "▁Bank": 8094,
      "看完": 8095,
      "也好": 8096,
      "少了": 8097,
      "运用": 8098,
      "是由": 8099,
      "▁combination": 8100,
      "▁struct": 8101,
      "有一天": 8102,
      "你今天": 8103,
      "4、": 8104,
      "▁Did": 8105,
      "▁turning": 8106,
      "共和国": 8107,
      "ari": 8108,
      "即便": 8109,
      "随时": 8110,
      "又要": 8111,
      "▁28": 8112,
      "贫困": 8113,
      "的水": 8114,
      "▁tells": 8115,
      "品种": 8116,
      "kes": 8117,
      "top": 8118,
      "昨天晚上": 8119,
      "的确": 8120,
      "看过": 8121,
      "流行": 8122,
      "▁Their": 8123,
      "明明": 8124,
      "偶尔": 8125,
      "5-": 8126,
      "爷爷": 8127,
      "▁tow": 8128,
      "重的": 8129,
      "▁religious": 8130,
      "▁Mac": 8131,
      "走向": 8132,
      "▁housing": 8133,
      "ocolate": 8134,
      "收购": 8135,
      "According": 8136,
      "upid": 8137,
      "去过": 8138,
      "力度": 8139,
      "致力": 8140,
      "看法": 8141,
      "▁flu": 8142,
      "全文": 8143,
      "osen": 8144,
      "屏幕": 8145,
      "▁announce": 8146,
      "▁tonight": 8147,
      "▁removed": 8148,
      "▁emotional": 8149,
      "▁negot": 8150,
      "Great": 8151,
      "▁employee": 8152,
      "造型": 8153,
      "给我们": 8154,
      "全新": 8155,
      "這次": 8156,
      "》。": 8157,
      "老爸": 8158,
      "IA": 8159,
      "小朋友": 8160,
      "下跌": 8161,
      "▁Care": 8162,
      "Qu": 8163,
      "rey": 8164,
      "▁processes": 8165,
      "你觉得": 8166,
      "chol": 8167,
      "作為": 8168,
      "▁abuse": 8169,
      "要么": 8170,
      "▁tight": 8171,
      "▁Management": 8172,
      "十六": 8173,
      "上下": 8174,
      "收费": 8175,
      "▁Green": 8176,
      "显得": 8177,
      "▁kick": 8178,
      "没钱": 8179,
      "留言": 8180,
      "▁courses": 8181,
      "▁cleaning": 8182,
      "▁util": 8183,
      "▁System": 8184,
      "领先": 8185,
      "▁causes": 8186,
      "的外": 8187,
      "依据": 8188,
      "they": 8189,
      "▁!": 8190,
      "我先": 8191,
      "自治": 8192,
      "你那里": 8193,
      "▁leads": 8194,
      "必然": 8195,
      "▁0.": 8196,
      "公益": 8197,
      "再去": 8198,
      "暂时": 8199,
      "固定": 8200,
      "▁Use": 8201,
      "▁banks": 8202,
      "▁comprehens": 8203,
      "▁dear": 8204,
      "▁hasn": 8205,
      "第二天": 8206,
      "▁advertising": 8207,
      "▁stood": 8208,
      "ibilities": 8209,
      "▁dat": 8210,
      "uy": 8211,
      "Con": 8212,
      "一生": 8213,
      "内心": 8214,
      "防止": 8215,
      "▁belong": 8216,
      "itate": 8217,
      "在吗": 8218,
      "▁specifically": 8219,
      "▁massive": 8220,
      "低于": 8221,
      "其次": 8222,
      "不但": 8223,
      "毫无": 8224,
      "▁follows": 8225,
      "▁instance": 8226,
      "疯狂": 8227,
      "你有没有": 8228,
      "播放": 8229,
      "的能力": 8230,
      "互动": 8231,
      "累了": 8232,
      "你妹": 8233,
      "子里": 8234,
      "流动": 8235,
      "useum": 8236,
      "▁constantly": 8237,
      "而不": 8238,
      "▁appeared": 8239,
      "hem": 8240,
      "免費": 8241,
      "▁authority": 8242,
      "ipe": 8243,
      "cient": 8244,
      "腾讯": 8245,
      "estival": 8246,
      "Yeah": 8247,
      "一半": 8248,
      "▁trail": 8249,
      "职工": 8250,
      "呼吸": 8251,
      "▁educational": 8252,
      "短期": 8253,
      "▁2011": 8254,
      "▁=": 8255,
      "年人": 8256,
      "想去": 8257,
      "获取": 8258,
      "field": 8259,
      "asp": 8260,
      "百姓": 8261,
      "就这样": 8262,
      "▁obviously": 8263,
      "呈现": 8264,
      "▁pu": 8265,
      "▁craft": 8266,
      "決定": 8267,
      "一是": 8268,
      "预防": 8269,
      "保留": 8270,
      "声明": 8271,
      "levision": 8272,
      "房价": 8273,
      "▁topics": 8274,
      "▁district": 8275,
      "▁vacation": 8276,
      "cipl": 8277,
      "你叫什么名字": 8278,
      "hy": 8279,
      "▁strange": 8280,
      "▁consumers": 8281,
      "▁sides": 8282,
      "的信息": 8283,
      "▁Lear": 8284,
      "Over": 8285,
      "▁Play": 8286,
      "▁ast": 8287,
      "打扰": 8288,
      "老師": 8289,
      "份额": 8290,
      "著名": 8291,
      "各種": 8292,
      "▁error": 8293,
      "将于": 8294,
      "▁rat": 8295,
      "▁David": 8296,
      "用来": 8297,
      "聪明": 8298,
      "因为我": 8299,
      "進入": 8300,
      "▁spl": 8301,
      "▁crim": 8302,
      "服装": 8303,
      "point": 8304,
      "的作用": 8305,
      "▁submit": 8306,
      "工商": 8307,
      "五百": 8308,
      "▁applied": 8309,
      "昨日": 8310,
      "▁senior": 8311,
      "Although": 8312,
      "伤心": 8313,
      "▁Its": 8314,
      "▁realized": 8315,
      "▁quote": 8316,
      "对了": 8317,
      "舒适": 8318,
      "▁unable": 8319,
      "医学": 8320,
      "iveness": 8321,
      "▁institutions": 8322,
      "ems": 8323,
      "第二次": 8324,
      "odies": 8325,
      "yn": 8326,
      "▁Indian": 8327,
      "▁internal": 8328,
      "▁prospect": 8329,
      "一点点": 8330,
      "▁Ann": 8331,
      "出租": 8332,
      "兩個": 8333,
      "演出": 8334,
      "相當": 8335,
      "出现了": 8336,
      "PA": 8337,
      "ivered": 8338,
      "无论是": 8339,
      "怀孕": 8340,
      "显然": 8341,
      "▁Mex": 8342,
      "▁answered": 8343,
      "orney": 8344,
      "▁scientific": 8345,
      "osis": 8346,
      "▁Port": 8347,
      "澳大利亚": 8348,
      "图书": 8349,
      "展开": 8350,
      "▁updates": 8351,
      "俱乐": 8352,
      "▁prove": 8353,
      "说道": 8354,
      "▁feelings": 8355,
      "▁Windows": 8356,
      "outs": 8357,
      "不理": 8358,
      "made": 8359,
      "层次": 8360,
      "贵的": 8361,
      "▁flav": 8362,
      "有事": 8363,
      "感染": 8364,
      "han": 8365,
      "建議": 8366,
      "一带": 8367,
      "價格": 8368,
      "azine": 8369,
      "基因": 8370,
      "▁unf": 8371,
      "东方": 8372,
      "▁indic": 8373,
      "▁spect": 8374,
      "▁allowing": 8375,
      "了呢": 8376,
      "▁promot": 8377,
      "list": 8378,
      "▁grown": 8379,
      "歷史": 8380,
      "胜利": 8381,
      "由於": 8382,
      "▁treated": 8383,
      "事项": 8384,
      "各自": 8385,
      "收集": 8386,
      "▁approximately": 8387,
      "reak": 8388,
      "▁university": 8389,
      "还算": 8390,
      "asks": 8391,
      "inter": 8392,
      "▁server": 8393,
      "▁regularly": 8394,
      "▁listening": 8395,
      "▁ingredients": 8396,
      "erves": 8397,
      "ups": 8398,
      "都说": 8399,
      "▁Union": 8400,
      "▁resident": 8401,
      "小区": 8402,
      "一定会": 8403,
      "▁forever": 8404,
      "▁forces": 8405,
      "ula": 8406,
      "▁RE": 8407,
      "▁artist": 8408,
      "rastructure": 8409,
      "▁facility": 8410,
      "-3": 8411,
      "的中": 8412,
      "▁Only": 8413,
      "你先": 8414,
      "▁keeps": 8415,
      "▁register": 8416,
      "▁sty": 8417,
      "话题": 8418,
      "之路": 8419,
      "▁god": 8420,
      "▁flight": 8421,
      "▁witness": 8422,
      "我这里": 8423,
      "拍照": 8424,
      "ville": 8425,
      "yal": 8426,
      "▁library": 8427,
      "▁teen": 8428,
      "你吗": 8429,
      "位的": 8430,
      "▁Committee": 8431,
      "去做": 8432,
      "▁II": 8433,
      "发达": 8434,
      "▁accepted": 8435,
      "76": 8436,
      "▁hang": 8437,
      "▁format": 8438,
      "▁previously": 8439,
      "▁visual": 8440,
      "加速": 8441,
      "爱好": 8442,
      "注重": 8443,
      "▁bunch": 8444,
      "中有": 8445,
      "學校": 8446,
      "Another": 8447,
      "消防": 8448,
      "▁tag": 8449,
      "▁medium": 8450,
      "▁Education": 8451,
      "▁explained": 8452,
      "是非常": 8453,
      "的人生": 8454,
      "▁destroy": 8455,
      "▁forth": 8456,
      "你没有": 8457,
      "三分": 8458,
      "ndom": 8459,
      "semb": 8460,
      "▁Jew": 8461,
      "群体": 8462,
      "arge": 8463,
      "▁Miss": 8464,
      "差异": 8465,
      "白天": 8466,
      "▁promise": 8467,
      "Click": 8468,
      "[...]": 8469,
      "▁edge": 8470,
      "黑色": 8471,
      "▁charges": 8472,
      "饮料": 8473,
      "▁UN": 8474,
      "ago": 8475,
      "嘿嘿": 8476,
      "▁multi": 8477,
      "事务": 8478,
      "▁bound": 8479,
      "獲得": 8480,
      "就會": 8481,
      "纽约": 8482,
      "福建": 8483,
      "鸡蛋": 8484,
      "这几天": 8485,
      "▁bond": 8486,
      "▁boat": 8487,
      "爸妈": 8488,
      "MS": 8489,
      "▁affected": 8490,
      "hand": 8491,
      "▁situations": 8492,
      "▁household": 8493,
      "▁determined": 8494,
      "▁breath": 8495,
      "债务": 8496,
      "安徽": 8497,
      "當時": 8498,
      "体制": 8499,
      "出门": 8500,
      "▁king": 8501,
      "▁slowly": 8502,
      "▁dance": 8503,
      "▁adapt": 8504,
      "▁fairly": 8505,
      "线上": 8506,
      "飯店": 8507,
      "非洲": 8508,
      "▁Democr": 8509,
      "▁sport": 8510,
      "▁officer": 8511,
      "我把": 8512,
      "▁26": 8513,
      "分为": 8514,
      "▁tired": 8515,
      "▁horse": 8516,
      "▁theory": 8517,
      "owing": 8518,
      "prene": 8519,
      "luding": 8520,
      "▁effectively": 8521,
      "三百": 8522,
      "几十": 8523,
      "舞台": 8524,
      "瞬间": 8525,
      "▁Mor": 8526,
      "▁participate": 8527,
      "行业的": 8528,
      "▁boost": 8529,
      "似的": 8530,
      "每日": 8531,
      "纷纷": 8532,
      "▁dealing": 8533,
      "▁PR": 8534,
      "点儿": 8535,
      "▁suggestions": 8536,
      "▁Met": 8537,
      "名单": 8538,
      "rog": 8539,
      "▁Kore": 8540,
      ":5": 8541,
      "GB": 8542,
      "▁Germany": 8543,
      "▁trick": 8544,
      "paper": 8545,
      "?」": 8546,
      "▁loves": 8547,
      "看不": 8548,
      "担任": 8549,
      "▁planned": 8550,
      "▁rough": 8551,
      "▁profile": 8552,
      "agraph": 8553,
      "类型": 8554,
      "认可": 8555,
      "更为": 8556,
      "entle": 8557,
      "话说": 8558,
      "的机会": 8559,
      "▁concl": 8560,
      "你什么时候": 8561,
      "▁stores": 8562,
      "▁okay": 8563,
      "mark": 8564,
      "地点": 8565,
      "▁Tex": 8566,
      "▁weren": 8567,
      "强化": 8568,
      "看出": 8569,
      "▁temperature": 8570,
      "星星": 8571,
      "实惠": 8572,
      "Last": 8573,
      "away": 8574,
      "也不能": 8575,
      "▁react": 8576,
      "▁vehicles": 8577,
      "▁orders": 8578,
      "禁止": 8579,
      "感动": 8580,
      "▁fly": 8581,
      "一套": 8582,
      "非法": 8583,
      "reprene": 8584,
      "这两": 8585,
      "rab": 8586,
      "一开始": 8587,
      "▁upgra": 8588,
      "▁chemical": 8589,
      "rian": 8590,
      "我以为": 8591,
      "机器人": 8592,
      "▁bon": 8593,
      "▁Je": 8594,
      "▁Ben": 8595,
      ",5": 8596,
      "▁fif": 8597,
      "▁competitive": 8598,
      "伊朗": 8599,
      "游泳": 8600,
      "▁La": 8601,
      "不动": 8602,
      "▁inspired": 8603,
      "发言": 8604,
      "河北": 8605,
      "貸款": 8606,
      "▁selected": 8607,
      "LY": 8608,
      "phas": 8609,
      "国民": 8610,
      "▁ju": 8611,
      "形势": 8612,
      "esides": 8613,
      "付出": 8614,
      "▁uns": 8615,
      "色彩": 8616,
      "▁Flor": 8617,
      "▁switch": 8618,
      "研究生": 8619,
      "哈哈哈": 8620,
      "首歌": 8621,
      "wing": 8622,
      "▁risks": 8623,
      "▁maximum": 8624,
      "amm": 8625,
      "实用": 8626,
      "▁Work": 8627,
      "合格": 8628,
      "的第一": 8629,
      "▁artists": 8630,
      "的孩子": 8631,
      "深度": 8632,
      "地下": 8633,
      "▁fruit": 8634,
      "related": 8635,
      "cles": 8636,
      "出台": 8637,
      "羊羊": 8638,
      "死啦": 8639,
      "▁messages": 8640,
      "▁properties": 8641,
      "▁persons": 8642,
      "▁gall": 8643,
      "▁centre": 8644,
      "▁affordable": 8645,
      "股份有限公司": 8646,
      "▁cultural": 8647,
      "▁millions": 8648,
      "▁unlike": 8649,
      "▁fighting": 8650,
      "42": 8651,
      "▁500": 8652,
      "义务": 8653,
      "icial": 8654,
      "的样子": 8655,
      "多元": 8656,
      "▁stret": 8657,
      "▁argument": 8658,
      "▁shoes": 8659,
      "在他": 8660,
      "预算": 8661,
      "工艺": 8662,
      "卓越": 8663,
      "TS": 8664,
      "▁roof": 8665,
      "▁Mary": 8666,
      "idays": 8667,
      "▁losing": 8668,
      "▁surgery": 8669,
      "标志": 8670,
      "▁pal": 8671,
      "▁exclus": 8672,
      "Note": 8673,
      "▁typically": 8674,
      "▁Bet": 8675,
      "▁France": 8676,
      "▁Russia": 8677,
      "參加": 8678,
      "▁immig": 8679,
      "的需求": 8680,
      "▁Star": 8681,
      "▁agent": 8682,
      "从小": 8683,
      "晚了": 8684,
      "提供的": 8685,
      "什么样的": 8686,
      "▁quant": 8687,
      "▁expertise": 8688,
      "实行": 8689,
      "▁criminal": 8690,
      "用品": 8691,
      "▁reput": 8692,
      "有效的": 8693,
      "▁renew": 8694,
      "我能": 8695,
      "日报": 8696,
      "总之": 8697,
      "nel": 8698,
      "无线": 8699,
      "▁Island": 8700,
      "▁watched": 8701,
      "▁assume": 8702,
      ",'": 8703,
      "OC": 8704,
      "发动机": 8705,
      "▁il": 8706,
      "▁Jo": 8707,
      "▁guest": 8708,
      "账户": 8709,
      "APP": 8710,
      "▁sets": 8711,
      "天天酷跑": 8712,
      "是指": 8713,
      "▁minim": 8714,
      "bel": 8715,
      "不信": 8716,
      "▁Public": 8717,
      "elines": 8718,
      "盈利": 8719,
      "叫做": 8720,
      "79": 8721,
      "一声": 8722,
      "地區": 8723,
      "▁Click": 8724,
      "提交": 8725,
      "kin": 8726,
      "立刻": 8727,
      "icit": 8728,
      "▁simpl": 8729,
      "一把": 8730,
      "▁milk": 8731,
      "......”": 8732,
      "▁agencies": 8733,
      "ograp": 8734,
      "▁proposed": 8735,
      "▁instructions": 8736,
      "玩啊": 8737,
      "▁perman": 8738,
      "什么事": 8739,
      "▁equal": 8740,
      "estyle": 8741,
      "▁academic": 8742,
      "▁spoke": 8743,
      "▁meat": 8744,
      "▁justice": 8745,
      "周年": 8746,
      "要有": 8747,
      "一方面": 8748,
      "分鐘": 8749,
      "身材": 8750,
      "1/": 8751,
      "▁laug": 8752,
      "11.": 8753,
      "▁factor": 8754,
      "there": 8755,
      "mosp": 8756,
      "家族": 8757,
      "▁Tom": 8758,
      "消費": 8759,
      "▁stuck": 8760,
      "UN": 8761,
      "笨蛋": 8762,
      "uine": 8763,
      "▁taught": 8764,
      "套餐": 8765,
      "▁illust": 8766,
      "电视剧": 8767,
      "▁Club": 8768,
      "一口": 8769,
      "▁College": 8770,
      "▁bread": 8771,
      "工人": 8772,
      "开启": 8773,
      "语文": 8774,
      "日期": 8775,
      "一段时间": 8776,
      "感兴趣": 8777,
      "▁Spr": 8778,
      "▁hero": 8779,
      "另一方面": 8780,
      "resp": 8781,
      "▁concent": 8782,
      "▁Those": 8783,
      "▁random": 8784,
      "▁nav": 8785,
      "练习": 8786,
      "魅力": 8787,
      "▁hall": 8788,
      "En": 8789,
      "在北京": 8790,
      "鸡巴": 8791,
      "▁ge": 8792,
      "女友": 8793,
      "高端": 8794,
      "▁Party": 8795,
      "IR": 8796,
      "权益": 8797,
      "▁auto": 8798,
      "▁fulf": 8799,
      "▁publ": 8800,
      "▁Does": 8801,
      "▁suddenly": 8802,
      "▁rom": 8803,
      "▁enjoying": 8804,
      "逻辑": 8805,
      "▁recognize": 8806,
      "▁lady": 8807,
      "▁transform": 8808,
      "VER": 8809,
      "一本": 8810,
      "又有": 8811,
      "▁ages": 8812,
      "▁monthly": 8813,
      "▁assets": 8814,
      "对比": 8815,
      "专项": 8816,
      "半天": 8817,
      "▁Development": 8818,
      "围绕": 8819,
      "个性": 8820,
      "inating": 8821,
      "iot": 8822,
      "电话号码": 8823,
      "▁reward": 8824,
      "平安": 8825,
      "▁Design": 8826,
      "記者": 8827,
      "▁resource": 8828,
      "证据": 8829,
      "lobal": 8830,
      "▁doors": 8831,
      "▁Program": 8832,
      "初中": 8833,
      "abled": 8834,
      "▁till": 8835,
      "▁shar": 8836,
      "你别": 8837,
      "花了": 8838,
      "▁Sub": 8839,
      "男女": 8840,
      "Ke": 8841,
      "退休": 8842,
      "ilos": 8843,
      "hab": 8844,
      "PC": 8845,
      "记住": 8846,
      "cean": 8847,
      "的呢": 8848,
      "根據": 8849,
      "alse": 8850,
      "▁delivered": 8851,
      "Cont": 8852,
      "▁amb": 8853,
      "▁Bill": 8854,
      "官员": 8855,
      "▁technologies": 8856,
      "麻将": 8857,
      "▁Fore": 8858,
      "▁debate": 8859,
      "居住": 8860,
      "▁recovery": 8861,
      "央行": 8862,
      "做事": 8863,
      "是他": 8864,
      "▁adm": 8865,
      "ript": 8866,
      "eper": 8867,
      "▁23": 8868,
      "私人": 8869,
      "▁consumer": 8870,
      "▁relatively": 8871,
      "▁planet": 8872,
      "▁tun": 8873,
      "rition": 8874,
      "擁有": 8875,
      "▁ends": 8876,
      "▁checking": 8877,
      "啤酒": 8878,
      "思路": 8879,
      "準備": 8880,
      "▁Would": 8881,
      "进了": 8882,
      "120": 8883,
      "▁expectations": 8884,
      "▁carefully": 8885,
      "▁informed": 8886,
      "头像": 8887,
      "解決": 8888,
      "▁univers": 8889,
      "▁investigation": 8890,
      "▁architect": 8891,
      "▁neck": 8892,
      "▁pulled": 8893,
      "书的": 8894,
      "▁lie": 8895,
      "▁talked": 8896,
      "▁bike": 8897,
      "说过": 8898,
      "la": 8899,
      "▁rub": 8900,
      "他也": 8901,
      "党员": 8902,
      "或者是": 8903,
      "我们就": 8904,
      "▁description": 8905,
      "▁male": 8906,
      "什么呢": 8907,
      "ya": 8908,
      "人群": 8909,
      "寂寞": 8910,
      "▁27": 8911,
      "▁neighborhood": 8912,
      "▁excess": 8913,
      "我们可以": 8914,
      "▁suppose": 8915,
      "味的": 8916,
      "▁dial": 8917,
      "财产": 8918,
      "▁nuclear": 8919,
      "▁ring": 8920,
      "▁buildings": 8921,
      "客戶": 8922,
      "的企业": 8923,
      "的照片": 8924,
      "▁sky": 8925,
      "自助": 8926,
      "▁south": 8927,
      "都被": 8928,
      "ams": 8929,
      "BS": 8930,
      "公务": 8931,
      "▁Security": 8932,
      "在美国": 8933,
      "▁Hel": 8934,
      "在一个": 8935,
      "oosing": 8936,
      "受伤": 8937,
      "厕所": 8938,
      "Per": 8939,
      "▁supporting": 8940,
      "▁Dec": 8941,
      "▁Which": 8942,
      "▁privacy": 8943,
      "▁approved": 8944,
      "4-": 8945,
      "的世界": 8946,
      "▁revenue": 8947,
      "都會": 8948,
      "▁Found": 8949,
      "▁square": 8950,
      "定期": 8951,
      "Che": 8952,
      "▁tests": 8953,
      "▁restaurants": 8954,
      "icon": 8955,
      "叫他": 8956,
      "挺好": 8957,
      "▁Sur": 8958,
      "▁element": 8959,
      "四年": 8960,
      "▁Mag": 8961,
      "▁rare": 8962,
      "▁id": 8963,
      "▁Gold": 8964,
      "▁vir": 8965,
      "stood": 8966,
      "蛋白": 8967,
      "urt": 8968,
      "▁stupid": 8969,
      "所谓的": 8970,
      "▁empt": 8971,
      "pret": 8972,
      "▁politics": 8973,
      "不停": 8974,
      "日至": 8975,
      "也不知道": 8976,
      "cking": 8977,
      "使用的": 8978,
      "了就": 8979,
      "law": 8980,
      "很不": 8981,
      "▁Prof": 8982,
      "依旧": 8983,
      "收获": 8984,
      "五一": 8985,
      "▁Mem": 8986,
      "威尼斯": 8987,
      "▁younger": 8988,
      "▁instru": 8989,
      "12.": 8990,
      "幫助": 8991,
      "勇士": 8992,
      "家具": 8993,
      "感受到": 8994,
      "▁appointment": 8995,
      "’,": 8996,
      "僵尸": 8997,
      "▁taxes": 8998,
      "周边": 8999,
      "▁protected": 9000,
      "周期": 9001,
      "等于": 9002,
      "43": 9003,
      "什么都": 9004,
      "版的": 9005,
      "Ind": 9006,
      "超過": 9007,
      "价钱": 9008,
      "▁guarantee": 9009,
      "UR": 9010,
      "craft": 9011,
      "东莞": 9012,
      "▁Rel": 9013,
      "回应": 9014,
      "斯特": 9015,
      "激烈": 9016,
      "浪漫": 9017,
      "零零": 9018,
      "▁prompt": 9019,
      "ateful": 9020,
      "贵州": 9021,
      "▁north": 9022,
      "实习": 9023,
      "▁replied": 9024,
      "等方面": 9025,
      "▁iron": 9026,
      "想的": 9027,
      "▁chosen": 9028,
      "大师": 9029,
      "▁smell": 9030,
      "相关的": 9031,
      "风景": 9032,
      "一代": 9033,
      "sey": 9034,
      "你是谁": 9035,
      "▁pump": 9036,
      "▁domestic": 9037,
      "anta": 9038,
      "学历": 9039,
      "▁Dist": 9040,
      "▁cooking": 9041,
      "红色": 9042,
      "▁laun": 9043,
      "inate": 9044,
      "!」": 9045,
      "▁honor": 9046,
      "欧元": 9047,
      "哪有": 9048,
      "深化": 9049,
      "转移": 9050,
      "巴黎": 9051,
      "招生": 9052,
      "▁Del": 9053,
      "做得": 9054,
      "▁license": 9055,
      "Fi": 9056,
      "陪你": 9057,
      "ta": 9058,
      "丰富的": 9059,
      "冲突": 9060,
      "接着": 9061,
      "▁plastic": 9062,
      "创作": 9063,
      "▁admit": 9064,
      "越南": 9065,
      "電腦": 9066,
      "我最": 9067,
      "▁script": 9068,
      "▁Michael": 9069,
      "已有": 9070,
      "导演": 9071,
      "▁illness": 9072,
      "的那种": 9073,
      "▁defend": 9074,
      "病人": 9075,
      "aration": 9076,
      "▁bear": 9077,
      "ician": 9078,
      "uration": 9079,
      "▁presentation": 9080,
      "点评": 9081,
      "集体": 9082,
      "▁serving": 9083,
      "▁airport": 9084,
      "美好": 9085,
      "nect": 9086,
      "▁illeg": 9087,
      "▁winning": 9088,
      "Res": 9089,
      "ker": 9090,
      "▁favourite": 9091,
      "omething": 9092,
      "客邦": 9093,
      "之类的": 9094,
      "执法": 9095,
      "让他们": 9096,
      "▁vent": 9097,
      "好处": 9098,
      "销量": 9099,
      "果然": 9100,
      "▁units": 9101,
      "当初": 9102,
      "中医": 9103,
      "▁infrastructure": 9104,
      "▁suc": 9105,
      "特征": 9106,
      "按摩": 9107,
      "isco": 9108,
      "▁PM": 9109,
      "▁alive": 9110,
      "吃不": 9111,
      "总理": 9112,
      "▁cart": 9113,
      "俱乐部": 9114,
      "发出": 9115,
      "urning": 9116,
      "太多了": 9117,
      "破坏": 9118,
      "▁mut": 9119,
      "如何评价": 9120,
      "幼儿园": 9121,
      "▁comprehensive": 9122,
      "▁bare": 9123,
      "▁Association": 9124,
      "ints": 9125,
      "cknow": 9126,
      "▁effic": 9127,
      "领域的": 9128,
      "场景": 9129,
      "體驗": 9130,
      "ricult": 9131,
      "民警": 9132,
      "▁extensive": 9133,
      "▁procedures": 9134,
      "给她": 9135,
      "▁breast": 9136,
      "饮食": 9137,
      "encing": 9138,
      "rain": 9139,
      "▁proof": 9140,
      "inations": 9141,
      "soft": 9142,
      "数据显示": 9143,
      "▁noted": 9144,
      "投票": 9145,
      "uilding": 9146,
      "69": 9147,
      "少女": 9148,
      "不良": 9149,
      "创建": 9150,
      "股市": 9151,
      "是中国": 9152,
      "hered": 9153,
      "敏感": 9154,
      "then": 9155,
      "▁Pay": 9156,
      "▁fle": 9157,
      "痞客邦": 9158,
      "67": 9159,
      "▁Acc": 9160,
      "▁但是": 9161,
      "▁entered": 9162,
      "▁careful": 9163,
      "nda": 9164,
      "▁saved": 9165,
      "▁Research": 9166,
      "Did": 9167,
      "▁confirm": 9168,
      "▁grew": 9169,
      "主人": 9170,
      "▁teeth": 9171,
      "懂得": 9172,
      "物品": 9173,
      "Am": 9174,
      "我跟": 9175,
      "华为": 9176,
      "青岛": 9177,
      "▁provider": 9178,
      "▁negoti": 9179,
      "顯示": 9180,
      "▁investors": 9181,
      "三大": 9182,
      "▁creation": 9183,
      "過去": 9184,
      "给大家": 9185,
      "什么东西": 9186,
      "▁atmosp": 9187,
      "▁writers": 9188,
      "▁tickets": 9189,
      "▁critic": 9190,
      "陪我": 9191,
      "▁classic": 9192,
      "▁regulations": 9193,
      "▁pure": 9194,
      "▁basically": 9195,
      "CP": 9196,
      "orter": 9197,
      "▁genuine": 9198,
      "▁profit": 9199,
      "学家": 9200,
      "学者": 9201,
      "▁rental": 9202,
      "▁invent": 9203,
      "抱着": 9204,
      "海南": 9205,
      "朋友圈": 9206,
      "公主": 9207,
      "▁twenty": 9208,
      "▁blogs": 9209,
      "不仅仅": 9210,
      "强大": 9211,
      "部队": 9212,
      "▁micro": 9213,
      "下來": 9214,
      "新能源": 9215,
      "▁Cr": 9216,
      "產業": 9217,
      "Sp": 9218,
      "此时": 9219,
      "comm": 9220,
      "是吗": 9221,
      "▁participants": 9222,
      "▁salt": 9223,
      "▁butter": 9224,
      "▁hadn": 9225,
      "▁5.": 9226,
      "解决方案": 9227,
      "essor": 9228,
      "学科": 9229,
      "▁suggested": 9230,
      "什么呀": 9231,
      "比我": 9232,
      "白色": 9233,
      "金属": 9234,
      "▁meetings": 9235,
      "持有": 9236,
      "▁痞客邦": 9237,
      "能否": 9238,
      "▁fasc": 9239,
      "ught": 9240,
      "▁Texas": 9241,
      "▁photograph": 9242,
      "▁species": 9243,
      "▁datab": 9244,
      "▁spok": 9245,
      "▁possibility": 9246,
      "▁depos": 9247,
      "Su": 9248,
      "细胞": 9249,
      "很高": 9250,
      "通信": 9251,
      "▁chicken": 9252,
      "去哪儿": 9253,
      "▁gotten": 9254,
      "5)": 9255,
      "决赛": 9256,
      "▁officers": 9257,
      "背后": 9258,
      "▁cheese": 9259,
      "▁frequently": 9260,
      "对话": 9261,
      "▁defined": 9262,
      "ilst": 9263,
      "▁advoc": 9264,
      "同一": 9265,
      "到你": 9266,
      "iety": 9267,
      "时光": 9268,
      "▁inspiration": 9269,
      "▁Ins": 9270,
      "▁believed": 9271,
      "是大": 9272,
      "▁lessons": 9273,
      "RA": 9274,
      "▁explan": 9275,
      "▁Right": 9276,
      "▁thorough": 9277,
      "之所以": 9278,
      "gage": 9279,
      "▁lights": 9280,
      "-8": 9281,
      "聊聊": 9282,
      "作为一个": 9283,
      "▁Amazon": 9284,
      "了没": 9285,
      "长得": 9286,
      "▁therapy": 9287,
      "接下来": 9288,
      "▁succeed": 9289,
      "气的": 9290,
      "▁decade": 9291,
      "from": 9292,
      "药物": 9293,
      "发货": 9294,
      "小时候": 9295,
      "▁fields": 9296,
      "命运": 9297,
      "通讯": 9298,
      "rating": 9299,
      "美容": 9300,
      "的服务": 9301,
      "▁researc": 9302,
      "为你": 9303,
      "▁describe": 9304,
      "▁involve": 9305,
      "症状": 9306,
      "球迷": 9307,
      "成功的": 9308,
      "和社会": 9309,
      "參與": 9310,
      "▁Mod": 9311,
      "陌生": 9312,
      "▁television": 9313,
      "巴西": 9314,
      "race": 9315,
      "▁everyday": 9316,
      "▁accurate": 9317,
      "▁accord": 9318,
      "不得不": 9319,
      "节奏": 9320,
      "吃到": 9321,
      "住宅": 9322,
      "不怕": 9323,
      "▁Find": 9324,
      "有机会": 9325,
      "产权": 9326,
      "▁enhance": 9327,
      "全市": 9328,
      "▁appearance": 9329,
      "▁engage": 9330,
      "▁elimin": 9331,
      "▁locations": 9332,
      "▁vast": 9333,
      "了解到": 9334,
      "hus": 9335,
      "whel": 9336,
      "▁Science": 9337,
      "▁introduced": 9338,
      "▁improved": 9339,
      "这家店": 9340,
      "▁suffering": 9341,
      "(3)": 9342,
      "身份证": 9343,
      "▁【": 9344,
      "▁hunt": 9345,
      "rage": 9346,
      "欺负": 9347,
      "Ab": 9348,
      "▁nine": 9349,
      "我只是": 9350,
      "冬天": 9351,
      "▁retire": 9352,
      "两国": 9353,
      "▁windows": 9354,
      "有一些": 9355,
      "奋斗": 9356,
      "ployment": 9357,
      "转变": 9358,
      "▁Florida": 9359,
      "▁skill": 9360,
      "中山": 9361,
      "▁aside": 9362,
      "▁iPhone": 9363,
      "▁Contin": 9364,
      "十四": 9365,
      "nov": 9366,
      "raq": 9367,
      "▁conflict": 9368,
      "这是一个": 9369,
      "干啥": 9370,
      "▁Minister": 9371,
      "gged": 9372,
      "▁charged": 9373,
      "win": 9374,
      "考察": 9375,
      "64": 9376,
      "▁deals": 9377,
      "ii": 9378,
      "umber": 9379,
      "▁nom": 9380,
      "老妈": 9381,
      "阿拉": 9382,
      "则是": 9383,
      "还有一个": 9384,
      "▁awareness": 9385,
      "▁celebrate": 9386,
      "TV": 9387,
      "▁chocolate": 9388,
      "ga": 9389,
      "-10": 9390,
      "傳統": 9391,
      "学的": 9392,
      "▁suitable": 9393,
      "▁Times": 9394,
      "什么啊": 9395,
      "解放": 9396,
      "▁Sum": 9397,
      "亚马": 9398,
      "貌似": 9399,
      "▁tiny": 9400,
      "▁everybody": 9401,
      "▁2008": 9402,
      "姐妹": 9403,
      "试验": 9404,
      "▁joined": 9405,
      "▁authorities": 9406,
      "去买": 9407,
      "之間": 9408,
      "人和": 9409,
      "更高": 9410,
      "可能性": 9411,
      "的意思": 9412,
      "学生的": 9413,
      "▁routine": 9414,
      "▁agg": 9415,
      "▁payments": 9416,
      "温度": 9417,
      "▁memories": 9418,
      "ifications": 9419,
      "飞行": 9420,
      "提出了": 9421,
      "安静": 9422,
      "看得": 9423,
      "吸收": 9424,
      "課程": 9425,
      "我这个": 9426,
      "基层": 9427,
      "▁James": 9428,
      "▁PC": 9429,
      "先后": 9430,
      "十七": 9431,
      "水的": 9432,
      "▁procedure": 9433,
      "陷入": 9434,
      "达成": 9435,
      "▁Food": 9436,
      "一句话": 9437,
      "▁landsc": 9438,
      "联赛": 9439,
      "▁About": 9440,
      "可以吗": 9441,
      "定义": 9442,
      "选举": 9443,
      "各国": 9444,
      "公寓": 9445,
      "媽媽": 9446,
      "istan": 9447,
      "▁Rich": 9448,
      "▁cake": 9449,
      "尼亚": 9450,
      "適合": 9451,
      "TA": 9452,
      "▁Ty": 9453,
      "開發": 9454,
      "sm": 9455,
      "珍惜": 9456,
      "ingly": 9457,
      ",3": 9458,
      "▁sufficient": 9459,
      "的路": 9460,
      "▁remote": 9461,
      "除非": 9462,
      "▁drinking": 9463,
      "▁acknow": 9464,
      "▁providers": 9465,
      "住宿": 9466,
      "大量的": 9467,
      "但我": 9468,
      "▁issued": 9469,
      "有多少": 9470,
      "▁Instead": 9471,
      "是我的": 9472,
      "▁”": 9473,
      "▁receiving": 9474,
      "▁Str": 9475,
      "中华人民": 9476,
      "▁liqu": 9477,
      "再来": 9478,
      "这句话": 9479,
      "▁likes": 9480,
      "ien": 9481,
      "▁Under": 9482,
      "旅遊": 9483,
      "▁reb": 9484,
      "▁purchased": 9485,
      "玩具": 9486,
      "的分": 9487,
      "inst": 9488,
      "你們": 9489,
      "你以为": 9490,
      "unction": 9491,
      "谈判": 9492,
      "▁colour": 9493,
      "的天": 9494,
      "温暖": 9495,
      "▁George": 9496,
      "ores": 9497,
      "▁reliable": 9498,
      "到家": 9499,
      "是我们": 9500,
      "▁coast": 9501,
      "▁reduced": 9502,
      "▁emphas": 9503,
      "Look": 9504,
      "oor": 9505,
      "▁Know": 9506,
      "See": 9507,
      "的中国": 9508,
      "以往": 9509,
      "▁enable": 9510,
      "▁reply": 9511,
      "本文": 9512,
      "非常好": 9513,
      "▁houses": 9514,
      "▁fault": 9515,
      "可不可以": 9516,
      "▁functions": 9517,
      "▁Two": 9518,
      "▁tasks": 9519,
      "▁solve": 9520,
      "▁weird": 9521,
      "rie": 9522,
      "▁Inter": 9523,
      "電子": 9524,
      "病毒": 9525,
      "▁dropped": 9526,
      "补贴": 9527,
      "▁substant": 9528,
      "的位置": 9529,
      "▁Ant": 9530,
      "▁facing": 9531,
      "press": 9532,
      "民众": 9533,
      "ario": 9534,
      "▁Very": 9535,
      "▁capable": 9536,
      "▁nurs": 9537,
      "▁<": 9538,
      "发生了": 9539,
      "到哪里": 9540,
      "outhern": 9541,
      "Mr": 9542,
      "▁sessions": 9543,
      "▁Sun": 9544,
      "▁humans": 9545,
      "开的": 9546,
      "学员": 9547,
      "你把": 9548,
      "超越": 9549,
      "之处": 9550,
      "People": 9551,
      "两百": 9552,
      "▁tro": 9553,
      "▁lux": 9554,
      "看不到": 9555,
      "reets": 9556,
      "▁sending": 9557,
      "orable": 9558,
      "新年": 9559,
      "男友": 9560,
      "▁metal": 9561,
      "日益": 9562,
      "▁Information": 9563,
      "欣赏": 9564,
      "代码": 9565,
      "Tr": 9566,
      "无数": 9567,
      "▁registration": 9568,
      "▁attacks": 9569,
      "▁behavi": 9570,
      "▁defense": 9571,
      "▁scr": 9572,
      "cons": 9573,
      "▁identity": 9574,
      "ander": 9575,
      "▁spons": 9576,
      "小孩子": 9577,
      "▁passing": 9578,
      "不说话": 9579,
      "▁supported": 9580,
      "▁industrial": 9581,
      "一款": 9582,
      "现在在": 9583,
      "▁drivers": 9584,
      "暴力": 9585,
      "▁advis": 9586,
      "▁plays": 9587,
      "▁gro": 9588,
      "▁dreams": 9589,
      "药品": 9590,
      "iance": 9591,
      "篇文章": 9592,
      "▁guard": 9593,
      "▁depends": 9594,
      "多大": 9595,
      "▁category": 9596,
      "▁installed": 9597,
      "你喜欢": 9598,
      "们的": 9599,
      "塑料": 9600,
      "找到了": 9601,
      "▁somewhat": 9602,
      "Take": 9603,
      "▁Wr": 9604,
      "▁Sol": 9605,
      "1:": 9606,
      "▁extend": 9607,
      "一体": 9608,
      "老大": 9609,
      "美好的": 9610,
      "对待": 9611,
      "ection": 9612,
      "購物": 9613,
      "批评": 9614,
      "▁forum": 9615,
      "是一個": 9616,
      "▁beer": 9617,
      "海鲜": 9618,
      "”(": 9619,
      "ipp": 9620,
      "DA": 9621,
      "▁susp": 9622,
      "观念": 9623,
      "基础设施": 9624,
      "引发": 9625,
      "和谐": 9626,
      "▁dish": 9627,
      "ius": 9628,
      "▁Const": 9629,
      "level": 9630,
      "比你": 9631,
      "一般的": 9632,
      "▁performed": 9633,
      "我們的": 9634,
      "racy": 9635,
      "▁evil": 9636,
      "十几": 9637,
      "亚马逊": 9638,
      "对你": 9639,
      "▁medicine": 9640,
      "▁mistake": 9641,
      "▁ordered": 9642,
      "了呀": 9643,
      "凌晨": 9644,
      "蒙古": 9645,
      "▁compens": 9646,
      "披露": 9647,
      "全省": 9648,
      "vin": 9649,
      "▁enforce": 9650,
      "2007": 9651,
      "ocal": 9652,
      "▁automatically": 9653,
      "rics": 9654,
      "ogue": 9655,
      "▁Iraq": 9656,
      "二是": 9657,
      "新聞": 9658,
      "▁vary": 9659,
      "建成": 9660,
      "你们的": 9661,
      "死的": 9662,
      "nds": 9663,
      "大家的": 9664,
      "▁gentle": 9665,
      "▁bab": 9666,
      "输入法": 9667,
      "才有": 9668,
      "abet": 9669,
      "orgeous": 9670,
      "▁shipping": 9671,
      "!!!!": 9672,
      "▁chapter": 9673,
      "▁delay": 9674,
      "神秘": 9675,
      "▁Call": 9676,
      "高达": 9677,
      "江西": 9678,
      "湖北": 9679,
      "人体": 9680,
      "处罚": 9681,
      "▁convenient": 9682,
      "持續": 9683,
      "的行为": 9684,
      "...”": 9685,
      "working": 9686,
      "isters": 9687,
      "’.": 9688,
      "整天": 9689,
      "并在": 9690,
      "▁exceed": 9691,
      "都市": 9692,
      "SU": 9693,
      "NA": 9694,
      "▁begins": 9695,
      "少数": 9696,
      "干嘛呢": 9697,
      "羊肉": 9698,
      "地区的": 9699,
      "生產": 9700,
      "irms": 9701,
      "組織": 9702,
      "▁improvement": 9703,
      "▁paragraph": 9704,
      "眼镜": 9705,
      "▁vital": 9706,
      "这不是": 9707,
      "越来越多": 9708,
      "▁Ter": 9709,
      "▁Plus": 9710,
      "你给我": 9711,
      "我们都": 9712,
      "人是": 9713,
      "各大": 9714,
      "创意": 9715,
      "才知道": 9716,
      "就说": 9717,
      "prise": 9718,
      "的研究": 9719,
      "met": 9720,
      "地理": 9721,
      "屁股": 9722,
      "我一直": 9723,
      "▁bodies": 9724,
      "遭遇": 9725,
      "▁everywhere": 9726,
      "基督": 9727,
      "▁German": 9728,
      "奥运": 9729,
      "北京市": 9730,
      "▁Hope": 9731,
      "▁adventure": 9732,
      "▁shit": 9733,
      "▁forest": 9734,
      "fol": 9735,
      "支出": 9736,
      "▁thinks": 9737,
      "街道": 9738,
      "▁struggle": 9739,
      "▁institution": 9740,
      "-20": 9741,
      "到达": 9742,
      "九九": 9743,
      "留在": 9744,
      "iverse": 9745,
      "▁brown": 9746,
      "全体": 9747,
      "▁challenging": 9748,
      "▁Rock": 9749,
      "由此": 9750,
      "pal": 9751,
      "一下子": 9752,
      "經過": 9753,
      "▁stars": 9754,
      "▁river": 9755,
      "太平": 9756,
      "▁ticket": 9757,
      "二手": 9758,
      "据了解": 9759,
      "rive": 9760,
      "再加上": 9761,
      "▁volume": 9762,
      "▁lifestyle": 9763,
      "你再": 9764,
      "▁Central": 9765,
      "这类": 9766,
      "平等": 9767,
      "ota": 9768,
      "全民": 9769,
      "▁incredibly": 9770,
      "ava": 9771,
      "中华人民共和国": 9772,
      "累计": 9773,
      "巧克": 9774,
      "今天的": 9775,
      "aren": 9776,
      "我们是": 9777,
      "▁wanting": 9778,
      "忍不住": 9779,
      "Make": 9780,
      "▁ven": 9781,
      "▁overwhel": 9782,
      "long": 9783,
      "▁trading": 9784,
      "程度上": 9785,
      "▁cutting": 9786,
      "▁flowers": 9787,
      "▁assessment": 9788,
      "装饰": 9789,
      "上线": 9790,
      "西亚": 9791,
      "電視": 9792,
      "▁grateful": 9793,
      "▁apps": 9794,
      "讓人": 9795,
      "账号": 9796,
      "▁Gree": 9797,
      "▁thick": 9798,
      "rier": 9799,
      "▁tail": 9800,
      "▁hat": 9801,
      "桌子": 9802,
      "ownt": 9803,
      "问他": 9804,
      "▁religion": 9805,
      "摩托": 9806,
      "过去了": 9807,
      "吃啊": 9808,
      "让她": 9809,
      "构建": 9810,
[...]
